{"Ġ{};": 51824, "ĠÐ¿ÐµÑĢÐ¸": 128898, "Shipping": 43107, "Ġtá»¥": 131999, "CEPT": 21026, "çļĦå¤ļ": 105433, "(defvar": 88644, "èĬĤçº¦": 105269, "AFE": 29736, "ĠPRI": 49845, "Ġterminals": 52629, "ãĤģ": 60477, "Ġdosis": 149099, "ĠÑħÑĢÐ°Ð¼": 150450, "ellten": 146853, "Ĩł": 135726, "ĠCDN": 87633, "Ġlk": 78381, "Ġabilities": 17516, "ĠShake": 71768, "ĠStructure": 28496, "ĠVolt": 64912, "Ġdoorstep": 75274, "Ġpriests": 41627, "å¤ªå¤§çļĦ": 117609, "ðŁĴĸ": 151974, "ĠNeg": 23927, "ĠÑģÐ¼Ð¾Ð¶ÐµÑĤ": 135582, "ĠØ§ÙĦØªØµ": 147727, "owered": 78576, "ĠIDb": 85049, "ombine": 26116, "ĠMaher": 95361, "ĠobsÅĤug": 148378, "áŀº": 154222, "ĠBudd": 18554, "Ð¿Ð»Ð°ÑĤÐ°": 140236, "instance": 4851, "kh": 30544, "ĠBITS": 90389, "ĠsignIn": 50660, ".Suppress": 51945, "ĠArtem": 77638, "ĠÐºÐ»Ð¸Ð½Ð¸ÑĩÐµÑģÐº": 146212, "second": 5569, "-conscious": 65089, "ĠHolly": 51982, "Ġmei": 141430, "Acceler": 57785, "ĠDavies": 55398, "`='$": 75510, "rimonio": 136131, "åĨľåľº": 108219, "flater": 11723, "åľ³": 100644, "uestra": 74768, "æį": 14665, "é«ĺçļĦ": 100367, "tamento": 128949, "Ġmusic": 4627, "/met": 89483, "SORT": 79531, "ĠTill": 39473, "ĠÄĳá»ĭ": 128455, "Ġguilt": 33689, "Ġabolished": 79339, ",M": 26926, "ĠWilmington": 83810, "èµ°å¾Ĺ": 122903, "ĠsetText": 44304, "ertura": 55494, "ĠÐ±Ð°Ðº": 134170, "Ġranging": 23926, "()}}Ċ": 97871, "İ": 236, "ĠYin": 82172, "å¥ĳåĲĪ": 114034, "áŁĻ": 154253, "ĠÐ¼Ð¾ÑģÐºÐ¾Ð²": 141887, "Operator": 18431, "Ġ!***": 82445, "Ġintense": 18860, "Ġtwists": 61456, "ÑĢÑĭÐ²Ð°": 142738, "Ð¡ÑĤ": 72927, "umento": 129355, "ĠNavBar": 78037, "Ġrespiratory": 41296, "Ġsummit": 28844, "_FOUND": 24611, "å®ĭæľĿ": 120595, "å¤¸": 103357, "ĉRTHOOK": 40228, "Ġklin": 142584, "éŁµ": 102073, "expectException": 86988, "-delay": 44904, "Internal": 11564, "ĠÐ´Ð°Ð½Ð½ÑĭÑħ": 51933, "æ¯ıä½į": 110433, "Ġcounterpart": 43763, "_both": 88084, "ĠØ§ÙĦÙħØ¯": 134094, "Ġmosque": 49691, "little": 55020, "Ð¾Ð²Ð¾Ð»ÑĮ": 141024, "}{$": 57973, ":UIControlEventTouchUpInside": 57432, "Ġintegration": 17565, "ĠNSAttributedString": 92455, "æľºæĻº": 125458, "çī¹ç§įè®¾å¤ĩ": 120609, "{Ċ": 515, "ĠBeaut": 14459, "Â¬": 81420, "Ð¾ÑģÐ¾Ð²": 145388, "Focus": 13810, "}catch": 35087, "fier": 135429, "amiliar": 40183, ".DataGridViewColumnHeadersHeightSizeMode": 71650, "ceans": 41980, "åĲį": 98482, "æµ·åįĹ": 103446, "Ġæĸĩ": 106666, "acy": 2757, "action": 1311, "ĠSQLiteDatabase": 61996, "ÐµÑĢÐ¾Ð²": 128506, ".OrderBy": 42795, "(offset": 26163, "ĠÐ¿ÑĢÐ¾Ð´Ð°Ð¶": 135238, "ovolta": 91714, "Ġ},Ċ": 1153, "ĠDamen": 92303, "æŀī": 114347, "ĠTumblr": 43349, "Ġastounding": 72490, "ĠThÃ¡i": 143250, "Ġchip": 16378, "äº²è¿ĳ": 111636, "ĠrelaciÃ³n": 67701, "ĠAgricultural": 58627, "ĠTele": 13554, "Ġbalancing": 43114, "_RUN": 24000, "å¾Īåı¯èĥ½": 109277, "æł¹æį®åľ°": 119025, "sou": 145506, "Ġgrotes": 94381, "Ð¾ÑĤÑĢÑĥÐ´": 147427, "Ø§ÙĦÙĩ": 136112, "})čĊčĊ": 70111, "ĠHannah": 46970, "éĤ£ä¸ªæĹ¶åĢĻ": 110447, "(columns": 38175, "å¤§èħ¿": 116340, "hoot": 89575, "ucursal": 81554, "Bl": 4923, "ĠSpecifies": 44715, "/small": 96005, "ĠSerum": 92707, "sequelize": 57460, "æĽ´å¤ļåľ°": 116534, "æ¡Įä¸Ĭ": 111007, "ĠÅ¼ycia": 139174, "èĩ´åĬĽ": 123579, "ĠÚ¯Ø±Ùģ": 133528, "_predicted": 94683, "ebe": 137750, "ãĤįãģĨ": 135012, "=\"/": 5914, "ðŁįĥ": 151635, "åĽ¢éĺŁæĪĲåĳĺ": 125342, "ĉplaceholder": 94855, "ÏĦÎ¹ÎºÎ¿Ïį": 137739, "Ġxamarin": 94674, "_pop": 17042, "wendungen": 149295, "Ġcentre": 12255, "Ġ::Ċ": 80033, "Postal": 43550, "Ġdipped": 71654, "enment": 51620, "éĥ": 30716, "Ġhurried": 72312, "genic": 87474, "starter": 31243, "ĠnÃ©t": 151228, "Ġtrucks": 26677, "èµŀåı¹": 119404, "Ð³Ð»ÑıÐ´": 129398, "(PropertyName": 89187, "/ĊĊ": 8679, "Jeff": 38419, "Ġreq": 4232, "wb": 20171, "ðŁĲľ": 151852, "ĠSieg": 146433, "utils": 6031, "Ġinfinitely": 70956, "grow": 65735, "wen": 16929, ")))ĊĊĊ": 83117, "ĠØ§ÙĦÙĬÙĪÙħ": 132586, "relative": 20390, "jÄĻ": 35135, ".sat": 92223, "Ġ;)ĊĊ": 80485, "åħ»æ®ĸ": 103087, "ingue": 148218, "\\Cache": 84160, "HG": 89367, "ĠÐ½ÐµÐ´Ð¾ÑĢÐ¾Ð³Ð¾": 146194, "ProcAddress": 69126, "ç¼Ń": 120025, "Ġauctions": 69608, "ä¸įåħ¥": 121738, "imated": 7145, "ibble": 81740, ".AddField": 86719, "çĿĢæīĭ": 108716, "Ġgebe": 143815, "_er": 79951, "ĠMonster": 27878, "_Rel": 88187, "ãģĮå¿ħè¦ģ": 144418, "ÐĺÑģ": 150778, "Ġpassed": 5823, "Ġboth": 2176, "_factory": 24200, "ÅĽwiet": 141147, ".NotNull": 41861, "ĠFunny": 52491, "Ġtiro": 146171, "Ġbathing": 71854, "ì¦Ī": 148009, "ĠmaniÃ¨re": 83926, "adaptive": 41327, "_feed": 42148, "czÄĻ": 140568, "elix": 67226, "ĠÑĢÐ¾ÑĤ": 150538, "ĠLans": 67343, "Hall": 71296, "Ġhonoring": 77300, "Ġsalt": 12015, "ĠSerg": 53885, "ë©Ķ": 83971, "ĠÐ´ÐµÐ½": 129477, "ĠÐ·Ð²": 128390, "ĠÐ¡Ð¼": 136852, "ĠÃºnica": 87441, "è®¢ç«ĭ": 118261, "á»¡": 143628, "ĠWoodward": 85407, "Ġê³µ": 132101, ".setStyleSheet": 81060, "ĠSO": 5627, "ĠÑĢÐ°Ð²": 129372, "ĠÚ¯ÙĪØ´": 143209, "ĠRichard": 11861, "å¯¿": 101020, "ĠÑĤÑĢÐµÐ²": 145034, "Ġinstruc": 145183, "/security": 70878, "äº§ä¸ļ": 99333, "Ġdirettamente": 146603, "()='": 97095, "ä¸ĢéĿ¢": 106971, "Ġagrade": 137992, "Ð¸ÑĢÐ¾Ð²": 58414, "Ġphone": 4540, "ĠÑħÐ¾ÑĢÐ¾ÑĪÐ¸Ðµ": 146257, "ud": 661, "Marketing": 67070, "otonin": 66467, "åı£å¤´": 114118, "Ġopioids": 82670, "xoops": 83136, "ĠÐ¾ÑĤÐ²ÐµÑĩ": 133187, "ĠEt": 18854, "ç¾İæı´": 125582, "ĉbuff": 84989, "åī¯ä¼ļéķ¿": 110258, "Eventually": 67488, "Ġbrow": 58864, "ÑĢÐ¾Ð´Ð°Ð¶Ð°": 142994, "âļĨ": 154698, "Ġgunfire": 76186, ".no": 18312, "Ġknives": 48587, "_DEFAULT": 13802, "}ĊĊĊ": 3733, "_VALIDATE": 63470, "editable": 43396, "_queues": 81735, ":function": 17907, "ĠCOP": 67080, "ĠÚ©ÙĦ": 135753, ".END": 55126, "reshape": 16123, "7000": 113790, "èµĦæºĲåĴĮ": 116103, "_Int": 31912, "_DEPRECATED": 81403, "ä¼ĹæīĢåĳ¨": 109860, "ĉdefine": 41818, "[model": 79296, "Ġvaguely": 71409, "Ġsmaller": 9152, "Ġbleiben": 89807, "Ġåįĥ": 114152, "Ñĳ": 43769, "Ġeinzige": 148264, "ä½Ĩæľī": 123472, "Storyboard": 35865, "Ġfeet": 7541, "Ġtakie": 136544, "_gpio": 31861, "åıĳå±ķæĪĲä¸º": 123477, "ĠÑĢÐ°ÑģÑģÑĤÐ¾Ñı": 136541, "čĊčĊ": 871, "ĠØ§ÙģØ²ÙĪØ¯": 150695, ".getP": 47980, "$args": 58168, "ĠUNION": 76933, "Congratulations": 51497, "ĠHigher": 34054, "Ġnem": 23580, "###ĊĊ": 50192, "ĠCalgary": 37679, "ĠÐ²ÑĭÐ·": 95855, "éĢīæĭ©é¢ĺ": 119223, "ĠLogistic": 77441, "ufen": 28321, "answer": 9214, "rotation": 13529, "Ġinstruction": 7600, "ãģį": 49416, "_REPORT": 40191, "ĠTil": 57275, "ISTRIBUT": 68502, "ĠDisp": 69210, "cat": 4616, "ä¸İäºº": 108523, "clusters": 77893, "permission": 22559, "_rpc": 60373, "Ġadditionally": 36647, "Ġdernier": 61357, "Ġaccounted": 40528, "ĠAz": 15383, "Ġcart": 7406, "Ġbundle": 12887, "ĠĠĠĠĉĊ": 34313, "Tables": 21618, "apeutic": 31255, "ĉkey": 23569, "ĠDDS": 64497, "Ġmozilla": 84217, "ĠÙħØ§ÙĦÛĮ": 145434, "Ġmisunderstood": 72296, "ä¸Ŀä¸Ŀ": 127172, "ĠÐºÐ»Ð¸ÐµÐ½ÑĤÐ°Ð¼": 148738, "ĠðŁĶ": 94271, "ĠÃ¼zere": 141947, "Ġsiste": 137757, "éĺħè¯»": 100278, "lr": 18983, "Ġterra": 59147, "ĉreturn": 853, ".username": 12377, ".Never": 82331, "Ġrichtig": 65202, "Ġsuggestions": 18196, "Room": 13994, "[iVar": 96182, ".getPath": 42021, "ĠDrake": 41529, "Ġmoistur": 53444, "(solution": 61476, "#/": 68952, "ä»¥å¤ĸçļĦ": 112298, "é¢Ĩå¯¼äºº": 109373, "(tp": 38644, "Ġluxe": 95293, "_reference": 25355, "Ġreinforcement": 70737, "ĠÐ¾ÑĢÐ³Ð°Ð½Ð¸Ð·Ð°ÑĨÐ¸Ð¹": 136282, "åħ¨æĸ¹ä½į": 105506, "ÑĢÐµÑħ": 131440, "ĠmaxLength": 35331, "Serve": 60000, "ĠPDT": 45188, "âĻ¹": 154685, "ÑıÐ·": 62539, "Ġèº«": 121259, "æĥ³åİ»": 107992, "ìŀĪ": 151104, "BAD": 53215, "Ġr": 435, "ä¸įéĶĻçļĦéĢīæĭ©": 121299, "igte": 91398, "ĉbe": 72578, "èµ«å°Ķ": 122697, "_trip": 63426, "Ġinhibitors": 67050, "ĠCallingConvention": 58012, "ĠĊĉĉĊ": 66900, "Ġglanced": 64091, "Literal": 17328, "ĠMichele": 72738, "ĠåıĬæĹ¶": 123948, "abbo": 53193, "sb": 16873, "Ġlud": 43711, "avorites": 29270, "æ¬²æľĽ": 105277, "annis": 75676, "å¤±è¡¡": 118665, "Ġcerv": 51225, "ç§ĺä¹¦éķ¿": 105987, "ĉpath": 26695, "æĭ¿": 99417, "arbe": 133337, "_manual": 74830, "çĳŀå£«": 108495, "-co": 22412, "Ġnoreferrer": 71060, "æ³ª": 101287, "ÑĩÐ¸Ð½Ð°": 135736, "ĠsetContentView": 21062, "Í½": 153302, "_flutter": 67594, "ĠÃ©ch": 133550, "Ġparish": 50860, "ĠWarsaw": 71623, "Ð´Ð¾Ð²": 130675, "ĠìĦ¸": 135813, "Ġpenc": 64798, "ĠKent": 17708, "åİĭåĬĽå¤§": 126227, "æĬµè¾¾": 107709, "å¤§çĲĨ": 111417, "æĹ©çĽĺ": 125617, "ä»·æł¼çļĦ": 118059, "ĠPickup": 73877, "Barrier": 32881, "ĠsiÃ¨": 95828, "ç¼´": 101686, "ilet": 20576, "ÑĥÑĢÐ¸": 132960, "JV": 77266, "æĹ¥": 98385, "ç²¾çĽĬæ±Ĥç²¾": 124613, "Ġ{\"": 5212, "ĠINTERRU": 28975, "Ġreply": 9846, ".th": 13668, "çĶ¨é¤Ĳ": 115412, "textbox": 76757, "Ġfron": 77327, "à¾©": 154078, "Ġxpath": 64059, "ĠHans": 24731, "ç½ĳç«Ļä¸Ĭ": 124382, "REDIT": 56083, "çº·": 100111, "validation": 12278, "AndHashCode": 91725, "æ¬¡è¦ģ": 125610, "ĉTask": 80496, "ĠGOOD": 21670, "mL": 113281, "ÒŃ": 152833, "Ġzoning": 64503, "gra": 31812, "/database": 41370, "Ġirrig": 51664, "çļĦåıį": 113502, "Ġ\"<<": 14707, ".swap": 54174, "Ġdlou": 143983, "_PARENT": 46560, "Ġ|_": 70354, "ĠØºÛĮØ±": 140448, "Ġcontents": 8793, "Ġinnovate": 90206, "Required": 8163, "Ġmaiores": 149994, "amics": 77550, "%).ĊĊ": 93291, "Ġresett": 89641, "ĠÑģÐ°Ð¼Ð¾Ð»": 140318, "entry": 4085, "kg": 7351, "ungere": 141812, "åħ¬åħ±äº¤éĢļ": 115605, "ADIUS": 44313, "Ġpelle": 140446, "è·¯è¾¹": 110960, "ĠÐ·Ð½Ð°Ðº": 148630, "ãĤĤãģ®ãģ§": 143831, "-type": 10599, "ĠChad": 41793, "erson": 1270, "èĪªç©ºèĪªå¤©": 120465, "ĉal": 69054, "si": 6321, "ĠFreunde": 147650, "(dllexport": 90276, "QRS": 89757, "Ġgoodbye": 46172, "Ġcontrast": 12865, "ÐĴÐ¾": 133965, "Ġlug": 53054, "æģ¢å¤į": 100870, "æĭ¼æĲı": 108739, "åľ£åľ°": 116856, "-figure": 98156, "ĠNIGHT": 74441, "Balance": 21142, "Ġhockey": 26865, "Ġkost": 61971, "éĿ¶åĲĳ": 121535, "Farm": 70460, "Ġ[<": 66737, "ï¼īãĢĤ": 73696, "organized": 61779, "corn": 38422, "æĹłæķ°æ¬¡": 124527, "ĠSpecify": 47103, "ĠZombie": 56608, "('/');Ċ": 44443, "VIOUS": 75869, "Ġbreasts": 36165, "ĠÑıÐ²": 127689, ".Event": 6904, "å¤©æ´¥": 101713, "Ġanglais": 74494, "åħŃå¤§": 114312, "ĠÙģÙĤØ¯": 145410, "Ġtranspar": 134580, "://%": 86071, "æľªè¢«": 127024, ".enable": 28595, "ĠcomboBox": 42467, "ÂŃs": 71232, "å«Įçĸĳ": 105265, "qb": 49380, "èĭĹ": 100380, "æĮ": 29562, "Ġscouts": 69350, "ening": 6019, "Ġsockfd": 80119, "pps": 59129, "chl": 66568, "Declare": 77827, "æ°´éĿ¢": 111131, "éĢĢè¿ĺ": 120948, "_proof": 86037, "ĠClients": 47116, "Ġeconomists": 44058, "ĠRootState": 96494, "çĪĨç«¹": 119269, "ĠOperating": 34959, "emotion": 72783, "ĠChart": 21218, "cstdio": 37018, "åĥµç¡¬": 123305, "dest": 4979, "ovement": 14448, "Ġequitable": 75405, "ITU": 47997, "ĠÑĤÑĢÑĥÐ±": 133697, "angs": 64021, "Ġapple": 23205, "åĪļåº¦": 122398, "Provider": 5179, "ĠØªØ±ÛĮÙĨ": 146077, "Ġocor": 83280, "Quarter": 85889, "zd": 48351, "Ġsieve": 73756, "Ġhomic": 36771, "<Product": 30305, ".Render": 27295, "ĠConsumers": 81320, "ĠExternal": 30810, "Ġ&'": 30019, "äººæ°ĳåĩºçīĪç¤¾": 115423, "å·®çļĦ": 113274, "Fact": 17394, "çļĦç¨ĭåº¦": 112392, "Ġanticipated": 28992, "essenger": 39916, "Ð¸Ð±Ð¾": 130749, "cales": 30079, "æľĪä¸Ĭ": 121839, "Ġvaik": 150358, "Ġgyak": 143676, "ĠgeÃ§": 75505, "Ġepisode": 9231, "Banner": 42923, "åıĬä½ľåĵģ": 127430, "ĉlib": 92676, "èĢĮä¸ĭ": 115831, "ë²Ħ": 78369, "Ð¸ÑģÑĤÑĭ": 140527, "Ġdamn": 26676, "åĮłå¿ĥ": 120706, ".ReadKey": 60537, "holding": 42247, "\")čĊčĊ": 30101, "(LP": 73617, "Buff": 34093, "èªŀ": 131513, "Ġzza": 96826, "ĠÐ»ÑİÐ±ÑĭÑħ": 141280, "éĢıè¿ĩ": 108554, "_latest": 64406, ".sb": 91682, ".cz": 73921, "Ġå¦Ĥæŀľ": 102723, "Ġallocating": 72202, "Tonight": 88404, "ðŁĸ": 151335, "ung": 2185, "Ġrecharge": 46535, "peratur": 137433, "Ġjag": 26656, "Ġ2007": 106213, "Ġlbs": 27964, "_perms": 97215, "orn": 1512, "vent": 684, "ÑīÐ°Ñı": 142586, "Ġhosting": 19641, "ĠLOOK": 49550, "è½¦åİ¢": 116675, "Ġspeculation": 32177, "ĠÑĤÐµÑħÐ½Ð¸ÐºÑĥ": 149038, "èģĮä¸ļåŃ¦éĻ¢": 117560, "Ġå¾Ĳ": 108130, "Ġdiario": 139944, "åľ°å¤Ħ": 108703, "_set": 2602, "áģ«": 153763, "ĠKristen": 75508, "è¿ĺæ¬¾": 110688, "ØªÙĨ": 130632, "Ġcaliber": 60342, "ĠÑĢÐ¾Ð²": 138877, "Ġimshow": 77970, "à¦¼": 152665, ".member": 32201, "ĉReturn": 64432, "æĿľé¹ĥ": 121777, "å¯¹äºİéĤ£äºĽ": 126277, "udev": 76679, "Ġregardless": 15472, "ëĭ¤ëĬĶ": 141841, "_MON": 26977, "Ġexplain": 10334, "Ġquelques": 44529, "åĺīå®¾": 106247, "ĠÑİÐ¶": 144173, "ĠPS": 11400, "ĠLPC": 48763, "Ġbooked": 32813, "BN": 15582, "åľ¨ä»ĸçļĦ": 109426, "Ġdc": 19366, "âĢĻin": 63070, "Ġ25": 106854, "alizaÃ§Ã£o": 135399, "Ð½ÐµÐ¿": 140476, "çĸ£": 122736, "(tree": 21249, "ï½ŀ": 21168, "ĠÐ´ÑĢÑĥÐ·ÑĮÑı": 135081, "hell": 55717, "ĠClaire": 42331, "Ð¸ÑĩÐ°": 136658, "ç®¡çĲĨåĬŀæ³ķ": 108324, "ĠÐ¿ÑĢÐ¸Ð¼": 127770, "ĠÐ¾Ð±ÑģÐ»ÑĥÐ¶Ð¸Ð²Ð°Ð½Ð¸Ñı": 143121, "fois": 84828, "Ġcollaps": 41786, "ĠÐ¿ÐµÐ´": 132787, "Editor": 9406, "Ġvalued": 32400, "(response": 5684, "ewnÄĻtrz": 150357, "acency": 40400, "Ġshocked": 26534, "åĴ¬çīĻ": 123803, "RED": 6504, "Ġjb": 86397, "éĵ¶è¡ĮçļĦ": 114657, "Ġpoz": 40496, "Ġb": 293, "arning": 3177, "ãĤĴæİ": 137394, "åĴĮéĺ¿": 125955, "Ġbrisk": 73810, "çľĭä¼¼": 105678, "unce": 95882, "è§īå¾Ĺ": 99388, "(bucket": 58527, "å¯¹å¾ħ": 103197, "oros": 147512, "ĉcursor": 55572, "Ġtijd": 52344, "gor": 5628, "ĉerr": 9854, ".startTime": 58371, "_twitter": 82648, "Ġutiliser": 73469, "ĠskÅĤad": 137846, "Ġmemorandum": 80993, "âĢŀ": 54694, "Ġæ³ķåĽ½": 118932, "å¥īçĮ®": 104309, "âĢĭâĢĭ": 87168, "çİĭ": 98799, "ĠÙĨÙĤ": 132899, "Rad": 41695, "ĠÑģÐ¾Ð¶": 134322, "ĠrÃ©cup": 77469, ">%": 28637, "åħ»çĶŁ": 105167, "_curr": 40293, "Ġdaytime": 60654, "åĴĮä¹īåĬ¡": 126336, "(fe": 91150, "Ġcherished": 79429, "è§ĨåĲ¬": 116550, "è§£éĶģ": 116884, "Ġ-*-čĊ": 81617, "ĠMahmoud": 92404, ".startActivity": 56944, "Ġiar": 86995, "ĠIndex": 8007, "ĠObama": 7105, "æĢĿæĥ³æĶ¿æ²»": 106498, "CurrentUser": 77629, "å½ĿæĹı": 124357, "Ġjadx": 57153, "ĠÐ½Ð°ÑģÑĤÑĢÐ¾Ð¹ÐºÐ¸": 149572, "Ġshot": 6552, "appable": 85667, "AllWindows": 81593, "Ġlon": 17780, "ubo": 95312, ".Memory": 70622, "ĠOpen": 5264, "ĠUSERNAME": 91342, "Ġpone": 139583, "=\\": 34263, "Ġexec": 3883, "folg": 129847, "odus": 49160, "çķħ": 101126, ".Deep": 55229, "å¼Łå¼Ł": 104688, "ECTOR": 35236, ".vendor": 71840, ".setIcon": 38578, "ĠØªÙĥ": 140263, "çĥŃçģ«": 121868, "ĠÑģÑĤÐ¾Ð¿": 144865, "çģĮ": 101786, "Ã§ois": 66862, "itaÃ§Ã£o": 142258, "æĮīæĳ©": 106005, "query": 1631, "yling": 97773, "Ġcompliments": 71094, "Êģ": 153862, "Basket": 73077, "Additionally": 49256, "1983": 111480, "ĠÐ²Ð¸Ð·Ñĥ": 141308, "ĠElevated": 95782, "][_": 93895, ".Typed": 97324, "ĠDEF": 23798, "ĠÐ½Ð°Ð¿": 89261, "gica": 149560, "ĠEvan": 43691, "Ġpuppy": 40958, "Ġ--------------------------------------------------------------------------------": 39160, "åĮ¿åĲį": 121530, "å½¢ä½ĵ": 115800, "ĠdupÄĥ": 136593, "åŃĹåı·": 115329, "Ġresidues": 70153, "Ġcallable": 40694, "Ġwithin": 2878, "ÐºÑĸÐ²": 133149, "Ġturbo": 46737, ":]Ċ": 24067, "\"])Ċ": 14099, "UIFont": 34931, "yleft": 62207, "array": 1653, "Ġoffres": 142649, "ç»ĪçĶŁ": 116837, "ĉversion": 74365, "¶Į": 136551, "ĠPon": 64838, "å¾Īéļ¾": 101261, "ĠOR": 2726, "ĠHoldings": 53185, "sey": 8505, "ä»ĸä¸į": 110660, "Ġtraces": 34213, "oley": 48688, "\\Auth": 32841, ".dead": 80080, "ĠSOM": 72723, "åıĭäºº": 120963, "deep": 32724, "é«ĺæĸ°æĬĢæľ¯": 108725, "Builders": 61866, "ĉĉĠĠĠĠĠ": 21447, "ĠĠĠĠĠĠĠĠĠĠĠ": 310, "Ġfreelancer": 91889, "ĠÐ´ÑĢÑĥ": 133247, "_WORDS": 87689, "ĠÐ¿ÑĢÐ¾Ð²ÐµÐ´ÐµÐ½Ð¸Ð¸": 149507, "fÃ¼h": 68046, "Baseline": 64144, "_ptrs": 78894, ".Spring": 25628, "Metrics": 27239, "èĦĳåŃĲéĩĮ": 122445, "omo": 15888, "ä¸ĩèĥ½": 119353, "èĤ¿åĿĹ": 125569, "ĠUph": 98066, "ĠÐ¿ÑĢÐ¾Ð²Ð¾Ð´Ð¸ÑĤÑģÑı": 139058, "ä½łä»¥ä¸º": 122592, "ĠExecutors": 94295, "åĳµæĬ¤": 112040, "åįļçī©é¦Ĩ": 102334, "cells": 36500, "ĠÐľÐ¾ÑģÐºÐ²Ð°": 133104, "ĠlÃŃqu": 146790, "éĨĩ": 102144, "olutely": 9685, "Ġoffended": 52769, "Sou": 57044, "_TypeInfo": 30770, "Ġdominate": 40511, "Ġintval": 26136, "Ġsarc": 78136, "ï¼Ī": 9904, "_ROLE": 47007, "give": 46149, "-sur": 67214, "ma": 1728, "Ġassociative": 68400, "Ram": 63392, "ä¼ĺèĥľ": 126795, "Ġwird": 14810, "ĠVery": 15296, "ĠendDate": 30327, "usten": 148753, "ĠRCA": 97500, "=N": 51654, "åİŁè°ħ": 109985, "Ġpj": 72056, "Ġmasking": 77449, "ðŁĶİ": 152094, "Ġestados": 92740, "Season": 34686, "æĺ¯åĲ¦ç¬¦åĲĪ": 125205, "ïº": 133307, "complexContent": 96891, "Ġdrifted": 90796, "ĠAbuse": 45414, "æĹ¢å¾Ģ": 110407, "Ġ[\\": 93028, "Areas": 70697, "ĠMargin": 70587, "Ġdialog": 7254, "åŃ£åĲİ": 113527, "ĠHungarian": 56387, "itical": 31129, "ĠÐ·Ð°Ð¹": 131066, "ĠContracts": 70032, "toa": 48782, "Ġadd": 912, "Ġessas": 145912, "ĠGomez": 61858, "Ġjewel": 65361, "Ġlng": 24744, "ris": 5963, "ì§Ħ": 84550, "Ġtut": 18032, "accine": 87292, "}`).": 59561, "ĠMultimedia": 81547, "è¡¨è¾¾": 100313, ".shadow": 38299, "DU": 21496, "åºĶåľ¨": 109445, "ĠtÃ©cnicos": 147972, "_subscription": 59423, "æ¸ħæ¥ļåľ°": 117107, "ĠAnyway": 41334, "Ġatheists": 77897, "BAB": 95288, "-top": 8174, "ä¿®åħ»": 108470, "éĥĬ": 105439, "ĠÑĢÐ¾ÑģÑģÐ¸Ð¹": 129354, "ĠÐºÐ¾Ð¼Ð¿Ð¾Ð·Ð¸": 144273, "ĠÑģÐµÑĢÐ´ÑĨÐ°": 141452, "ĠÙħØ«ÙĦ": 133722, "arshal": 28323, "å¤§å®¶åı¯ä»¥": 118910, "idebar": 12677, "ĠSOUR": 48457, "ĠIdentifier": 34451, "å±ĭé¡¶": 112049, "å¢ĥåĨħçļĦ": 125918, "å¤§åŃ¦èĭ±è¯Ń": 121420, "ink": 766, "ĠCycle": 41061, "Ġequilibrium": 54940, "theros": 90030, "/ec": 72494, "æ®µæĹ¶éĹ´": 103602, "ĠYEAR": 50572, "æİłå¤º": 127125, "Ġadjustable": 35750, "Therefore": 54449, "neath": 27722, "Ġcans": 42388, "é©¯": 116278, "éŃħåĬĽ": 103064, "åĪ«äººçļĦ": 103683, "Ġsettings": 5003, "ä¹Łä¸įä¼ļ": 102992, "/gif": 90079, "Ġâīł": 93511, "åıĳå±ķæľīéĻĲåħ¬åı¸": 115128, "å¹¶å¯¹": 106326, "ãģ¤ãģ®": 148656, "Ġslo": 17578, "++;čĊ": 13904, "ç»ıæµİæįŁå¤±": 119575, "ä»ĸåľ¨": 102015, "bah": 67648, "åĿĩè¡¡": 105842, "Ġlongstanding": 72565, "=function": 29376, "_preferences": 65036, "scores": 46407, "Ġstringent": 68495, "Ð»Ð¾Ð²Ð°": 143732, "aber": 42894, "ĠÑģÐµÐ²ÐµÑĢ": 143652, "idences": 83304, "PATCH": 31037, "Nib": 29018, "ÌĽ": 151483, "çķĻç»Ļ": 112758, "MV": 66140, "Æ°á»Ł": 129162, "ĠÄĥn": 130394, "Ġelevated": 31158, "ä¿¡çĶ¨": 100939, "ä¸Ģç«ł": 114662, "Ġmanages": 28769, "ĠCrom": 90839, "ĠØªØ±": 129121, "coes": 79208, "ĠBT": 21064, "//----------------": 61251, "Ġcoisa": 95889, "ĠEnergy": 12348, "ĠBarrier": 70453, "addir": 44267, "ĠListBox": 97378, "ĉcout": 7700, "Ġselection": 6589, "ðŁĵ¬": 152060, "Ġhav": 29865, "å°ºåº¦": 109747, "ĠResets": 96186, "çİĭçīĮ": 121057, "ĠÏĢ": 51405, "ĠApplicationContext": 90752, "Ġproj": 21283, "äººæ°ĳæĹ¥æĬ¥": 114052, "Ġdall": 62548, "å½»": 100327, "ĠHank": 54295, "liked": 42990, "ĠÎºÎ¬": 130672, "_signed": 55243, "swagger": 74169, "Issuer": 98063, "Ùı": 64137, "Ġdevelopment": 4401, "ï¼ļãĢĮ": 105230, "Ġunused": 19967, "ĠvÃ¤l": 82237, "IDDEN": 38084, "Î³ÏģÎ¬": 139786, "ĉĉĊĉĉĊĉĉĊ": 80391, "Ġmuá»ĳn": 131022, "ĠperÃŃodo": 85905, "mento": 129047, "Ġweights": 14314, "ä¾µçĬ¯": 106347, "ç·¨": 141155, "ĉmax": 22484, "Ġnombreuses": 135243, "é¡¹çĽ®å»ºè®¾": 108630, "Ġdesktop": 17481, "HEY": 76967, "ĠÐ°ÑĢÑħÐ¸Ð²": 150494, "_logits": 59141, "antium": 97097, "warning": 18894, "ÐµÑĪÑĮ": 131049, "ĠFeld": 49435, "Ġdeserved": 44189, "åĽłåľ°": 117683, "iton": 61997, "Ġobjetivos": 137043, "ĠHub": 26453, "éĢīæĭ©": 99102, "ä¸įæŃ¢": 106145, "å±ķå¼Ģ": 101807, "(By": 13279, "åľŁèĢ³": 108848, "éĶ¤": 106381, "ofil": 46511, "å¤§å¤´": 122229, "à¤İ": 151360, "ĠCITY": 46266, "Ġ////": 30677, "(MouseEvent": 44550, "Ġaway": 3123, "ales": 3831, "apas": 87298, "å°¼æĸ¯": 109006, "-index": 21442, "Ġvesti": 135219, "cluir": 44462, "ä¸½ä¸Ŀ": 125356, "_Login": 78595, ".Maybe": 97384, "t": 83, ".setAction": 72974, "acimiento": 54004, "çĤ¹äºĨ": 111510, "ä¸įäºĨçļĦ": 121625, "Ġwebs": 80264, "ÄŁini": 131744, "acements": 32920, "andidates": 26141, "Ġnakne": 67360, "çĶ©": 107596, "åı¤": 99042, "Ġdischarge": 31411, "_Valid": 96463, "elan": 75494, ".Basic": 48561, "_UP": 14046, "ĠÐ¼Ð¾Ð½ÑĤÐ°": 144994, "Ġeines": 35926, "âĺķ": 154589, "ĠWAR": 57587, "ĠÎłÎµ": 146854, "+'&": 62486, "ĠKoreans": 69192, "èĢģäººå®¶": 121256, "YT": 77717, "amus": 54983, "Ġphoton": 67417, "å®¹æĺĵè¢«": 117832, "ĠÐ¿Ð¾ÑģÑĢÐµÐ´ÑģÑĤÐ²Ð¾Ð¼": 146893, "Ġinventor": 70369, "pia": 134132, "KL": 52633, "Ò²": 152838, "_globals": 58370, "lesc": 63078, "engkap": 86548, "ligne": 89286, "ĠJapan": 6323, ".x": 1993, "olar": 7417, "ĠSpit": 81074, "\"https": 57165, "æĺ¯ä¸įåı¯èĥ½": 124786, "Ġdispersion": 84907, "[user": 53188, "ierarchical": 98111, "ÑĪÐµÐ¹ÑģÑı": 146679, "Includes": 55459, "vit": 54445, "ĠHumanities": 85532, "ĠÐ½ÐµÑģÐ¾Ð²ÐµÑĢÑĪÐµÐ½": 151328, "IntPtr": 73580, "Ġellos": 52976, "tega": 91134, "ĠÐ³Ð»Ð°Ð²Ð½ÑĭÐ¼": 144692, "veedor": 51359, "ĠMLB": 39896, "ĠDatePicker": 62974, "Ġherramient": 81319, "Ġairl": 81975, "URN": 11269, "ä¾¿ç§ĺ": 108658, "åĺ²ç¬ĳ": 114415, "Ġaggregated": 70290, "Ġsepar": 4836, "Https": 92090, "ournemouth": 96168, "ersi": 135284, "Ġenthusiastically": 97397, "Ġæķ°åŃ¦": 125029, "Ġiphone": 42205, "åŃ¦åīįæķĻèĤ²": 119377, "Ġrenewed": 35370, "ĠNem": 61732, "ĠÐ¾ÑīÑĥÑīÐµÐ½Ð¸Ðµ": 149535, "ĠPhysiology": 94049, "EFF": 54299, "ItemClickListener": 37135, "_vol": 42540, "ä¸ĩåŃĹ": 125780, ".until": 75468, "à¿ķ": 154122, "ĠrÃ©sultats": 98304, "*k": 42223, "dsn": 74543, "ĠWP": 23190, "nodiscard": 81657, "Ġtextbook": 54716, "ÐµÑĪÐµÑħÐ¾Ð´": 149787, "ĠSpecialist": 39108, "è¶³åįı": 117492, "Ġfile": 1034, "Maximum": 27220, "ä¿¡çĶ¨ä¿¡æģ¯åħ¬ç¤º": 103667, "StringValue": 82014, "èĩŃ": 103627, "ĠNotFound": 23355, "Î»Î·ÏĤ": 146208, "ÒĨ": 152794, "iks": 67398, "Ġiid": 90581, "Substring": 58667, "ĠcÄĥ": 39045, "ActionResult": 17280, "ĠCoffee": 25998, ";b": 54564, "å¯ĨéĹŃ": 126238, "ĠLok": 57014, "ĠCMS": 36058, "ĠÑĨÐ°ÑĢ": 144275, "ç³ķ": 102543, "]\")]Ċ": 75851, "ĠâŁ": 34240, "ĠagrÃ©able": 144783, "èĻ½çĦ¶æľī": 126812, "ÎĪ": 150155, "Ġbok": 141926, "ĠMetallic": 86151, "ĠÐ²Ð¼ÐµÑģÑĤÐµ": 130333, "Ġht": 34154, "Ġovarian": 83747, "ĠçĮª": 124097, "Ġrestoring": 48790, "åģļè¿ĩ": 108179, "ÙĪØ±ÙĬØ§": 148204, ".transforms": 85594, "Ġtolerance": 24030, "Ġeru": 59834, "HV": 77568, "Î¾Îµ": 138296, ".temperature": 73786, ",:,:": 57649, "åī¿": 116821, "ĠVX": 77549, "ĠÐ¿ÑĢÐ°ÐºÑĤÐ¸ÑĩÐµÑģÐºÐ¸": 131060, "*sin": 55310, "ĠÐ¸ÑģÐ¿Ð¾Ð»Ð½Ð¸ÑĤÐµÐ»ÑĮ": 140392, "ĠMaria": 22955, "iendas": 148300, "Ġjsonify": 31916, "Ġåº·": 120606, "pli": 128412, "Ġsund": 50250, "çŁ¥å·±": 119082, "ĠBihar": 91500, "Ġconfidential": 26112, "æĪĸè®¸æĺ¯": 117533, "itÃ¤ts": 135843, "Ġ(âĢľ": 26006, "ĠRole": 15392, "sweise": 134069, "Ġwrinkles": 72543, "_memory": 19159, "-ver": 97228, "ĠÃ©lÃ¨ves": 144861, "egrated": 46881, "Ġè¯·": 108538, "AYOUT": 33835, "pts": 12748, ")c": 46696, "Ġnep": 90768, "ĠAXIS": 86504, "Ġ=\"\";Ċ": 97900, "ĠmÃ¡s": 10913, "(\"-\",": 67552, "via": 20065, "ĠHann": 27636, "ĠÐĳÑĬÐ»Ð³Ð°ÑĢ": 146335, "ĠÑĢÐµÐ±ÑıÑĤ": 151219, "Ġcoronary": 64722, "Trou": 89786, "ä¸»å¼ł": 104264, "/A": 10355, "ĠEXPER": 79439, "áĥĺ": 154444, "ĠÐ½Ð¾ÑĤ": 144320, "åħ¬åĬŀ": 117783, "asmine": 38656, ".JButton": 25764, "ĠÑģÐ»ÑĥÑĩÐ°ÐµÐ²": 135292, "ĠÐ¿ÑĢÐ¸Ð±Ð¾ÑĢ": 136806, "ĠÐĳÐ¾Ð»ÑĮÑĪ": 133801, "æ¯ıæľĪ": 105109, "çŃīäºİ": 104965, "%;Ċ": 15900, "æĪĸåľ¨": 117040, "EDITOR": 64266, "Ä": 128, "æ¢¯éĺŁ": 127345, "Ġdisappointment": 40375, "ĠSpecialty": 80850, "ForObject": 93807, "ĠMitte": 143497, ")\"Ċ": 12947, "today": 29996, "å¼Ģåľº": 118653, "Meanwhile": 24928, "ĠtaskId": 60106, "é«ĺä¸ŃçĶŁ": 120551, "ĠZeitpunkt": 143444, "å¾Īå¼ºçļĦ": 109243, "ĠintervenciÃ³n": 150436, ";/": 20517, "\"));čĊ": 15385, "strike": 72441, "usize": 51537, "Ġbetrayed": 63835, "Ġzmq": 89989, ".ProgressBar": 73441, "Ġincarcerated": 79479, "receiver": 37358, "-wrapper": 17366, "ĠCOMPUT": 65318, "ichtig": 34792, "æĸĵ": 125024, "_\"": 18738, "-secondary": 29274, "Ġimmense": 37587, "Ġhonoured": 88991, "iman": 38998, "æľŁå¾ĴåĪĳ": 111776, "ITAL": 33028, "ÐµÑģÑĮ": 90824, "Ġlongo": 142719, "lÃ¡n": 140065, "ãĥįãĤ¹": 146056, "ĠAPA": 82850, "CharCode": 63406, "Ġthrott": 79330, "_null": 15150, ".getNext": 53990, "æĭĴ": 101271, "ç®¡è¾ĸ": 107952, "cers": 16814, "EX": 3257, "ĠRosenberg": 95796, "è¿ĳçĻ¾": 122044, "Ġtritur": 65659, "/register": 37641, "Forward": 25844, "Dynamic": 21700, "CONT": 23248, "_valid": 8336, "ĠÅĵuvre": 142161, "*/,": 29663, "ParameterValue": 88691, "ĠÐĵÐ¾Ð´": 149017, "ollectors": 29637, "Åģ": 140110, "encodeURIComponent": 96860, "zate": 144818, "Ġieri": 150603, "hands": 87283, "ĠAlps": 92120, "Ġclit": 90992, "ç»ĵåĲĪ": 99683, "ĠÑıÐº": 128606, "Ġoltre": 90342, "åĽĽå·Ŀçľģ": 105071, "Ġlightly": 33244, "Ġtactical": 38439, "Ġsubtype": 52138, "ĠPlease": 5209, "åĪ·æĸ°": 111575, "ĉOn": 85674, "Ġhwnd": 52483, "æĪĳä»¬åı¯ä»¥": 103839, ".columns": 21105, "å·¥ç¨ĭåŃ¦éĻ¢": 111540, ">--}}Ċ": 42951, "Ġdisadvantage": 48431, "Ġpracticing": 35389, "[float": 94579, "ĠNH": 34658, "ĠFence": 79321, "ĠÑģÐ¸Ð½ÑĤ": 140931, "Rock": 34878, "ĠCairo": 52204, "Ġexpands": 51515, "Ġpartida": 95737, "Ġreinforcements": 97666, "_ATT": 29861, "Ġdiffer": 1745, "ĠSolutions": 22617, "gemein": 131938, "è¿Ļä¸¤": 103263, "Forever": 89812, "Ġvowed": 49709, "Ġmod": 1463, "wj": 66466, ".DrawString": 73194, "å¹¿æ³Ľåħ³æ³¨": 124525, "ĠÐ¾Ð±Ð¾Ð»": 145923, "Ġexploitation": 39446, "ĠRaycastHit": 95064, "txn": 72800, "Ġsteroid": 76139, "ç§¯æŀģåıĤä¸İ": 109180, "Ġherz": 147956, "éĢĥéģ¿": 109686, "Ġapresent": 54396, "()ĊĊĊĊ": 66441, "Ġnici": 139212, "Ġcam": 6592, "}';Ċ": 82795, "landscape": 87659, "ĠRiv": 50335, "-vis": 80727, "_verbose": 67428, "Ġ:-)": 91070, ".Web": 6473, "Mvc": 27565, "(tx": 27212, "ç»ŁæĪĺ": 112946, "Ġpensando": 146244, "å¥¹çļĦ": 100208, "ĠÐ¿Ð°Ð½ÐµÐ»Ð¸": 144720, "Ġspread": 8863, "çĶ³è¯·": 100134, "Ġprofits": 21804, "Ġchá»©a": 146378, "Administrator": 61936, "Ġraised": 9223, "ĠStaats": 139954, "æĿ¡ä»¶ä¸ĭ": 104149, "Ġqualifying": 35932, "çļĦçİ°å®ŀ": 116307, "AIT": 18555, "Ġsqu": 8166, "$L": 89149, "Ġhired": 21396, "áģĻ": 153745, "ĠpÃ©riode": 136152, "/L": 7434, "cth": 91050, "Ġgest": 12737, "_txn": 91524, "è´µçļĦ": 104432, "È¼": 153182, "-tooltip": 60222, "CanBeConverted": 78241, "Ġeigentlich": 83188, "Ġéĩį": 107330, "datal": 81874, "_fee": 34137, "Ġcosmetics": 64490, "é«ĺçŃīæķĻèĤ²": 107419, "ĠCHK": 86552, "Tw": 22755, "L": 43, "Ġcitation": 44119, "Ġescort": 6155, "Ð¸ÑĤÐµÐ»ÐµÐ¹": 128300, "ĠAve": 21245, "Sujet": 140731, "Rotor": 87226, "CHANGE": 40646, "Ġmirrors": 40263, "_EXTERN": 37547, "ĠCarlo": 57375, "ĠÐ¾Ð¿Ð»Ð°ÑĤ": 135615, "bul": 16096, "Swap": 45900, "ĠìĺĪ": 94812, "Ġsuccessive": 48615, "ĠÑİÑĢÐ¸Ð´": 133147, "...\");Ċ": 25946, "=start": 55248, "(dis": 16347, "Ð°Ð»ÑĮÐ½Ð°": 143554, "udson": 31545, "Ð¼ÐµÐ½": 37676, "åľ¨é¦Ļæ¸¯": 116255, "å°Ĩè¢«": 112921, "å°ıåŃĲ": 113055, "ĠChocolate": 38213, "ĠdÃ©tails": 149538, "unÄĥ": 149719, "Ġê°ĴìĿĦ": 92882, "inu": 140103, "visible": 12595, "Ġchall": 4799, "Ġpip": 23561, "BC": 4897, "fense": 141722, "ĠÐ´ÑĢÑĥÐ³Ð¸Ðµ": 129369, "ĠTICK": 75109, "PLUS": 61146, "Ġjed": 18273, "Twitter": 24786, "Ġemptied": 93084, "OCI": 63525, "='%": 41546, "teilt": 137618, ".gpu": 83395, "aaS": 64143, "iles": 3658, "Ġchew": 36149, "ZZ": 33374, "Ġpictured": 41331, "_ips": 70538, ".Quantity": 65784, "ĠlÃ¤sst": 73168, "-Muslim": 60974, "Ġdrafted": 37759, "ĠReSharper": 51813, "Ġdefective": 63348, "_colors": 33508, "LINK": 35775, "jun": 57287, "Ġtiáº¿t": 133033, "Security": 15340, "ĠØ§ÙĦØŃ": 127820, "Ð½ÑĥÐ²": 133090, "wechat": 77867, "Reward": 59208, "Don": 8001, "ĠPLACE": 81212, "æĭĵå®½": 109962, ".shuffle": 44782, "Ġevapor": 58643, "MIT": 18301, ".commit": 15716, "erst": 128270, "ĠÐ¾ÐºÐµ": 148708, "éĵģ": 99292, "äºº": 98320, "Ġreconcile": 62956, "ĉmemcpy": 25419, "eval": 14161, "ĠtÃ¤glich": 146352, ".regex": 42873, "åıĤè°ĭ": 114429, "_labels": 14537, "clide": 45055, "åĳ½ä¸Ńçİĩ": 123585, "getto": 63169, "ðŁĳĥ": 151891, "ĠpodÃŃa": 143093, "ĠØ¨ÛĮÙħ": 137581, "ĠÑģÑĢÐµÐ´Ð¸": 130631, "ĉĠĠĠĠĠĠĠĠĠĠĠĠĠ": 66042, "Ġcombustion": 57836, "Ġgcd": 44597, "Ġtrade": 6559, "tifica": 133451, ".setStroke": 91515, "Ġdemonstrates": 30990, "çĶ·å¥³": 103621, "itung": 49836, "ãĤ¤ãĥ«": 131151, "Ġinsgesamt": 139412, "Ġdivorced": 49175, "ĠpostId": 65549, "Hospital": 80802, "ĠPure": 29476, "Germany": 49848, "ĠSitz": 137646, "upplier": 71146, "Ġsynthetic": 27179, "æīĵçł´äºĨ": 114601, "precated": 19851, "ĠRuntime": 10949, "Jul": 27988, "ĠPrim": 35009, "ä½ĵåĪ¶æľºåĪ¶": 121257, "CSV": 43953, "ĠValerie": 88516, "thesize": 26801, "/place": 60349, "à¤Ĳ": 151362, "Ġanyway": 13648, "rar": 43730, "Ġkinds": 12823, "ìĽĶ": 133575, "Ġexposures": 68916, "Ġshutting": 49705, "Ġna": 4317, "å¸®åĬ©ä½ł": 123540, "Ġlocksmith": 97132, "ĠÑĢÑĥÐºÑĥ": 143190, ".mContext": 96987, ",idx": 93194, "Ġteljes": 138391, "ĠmÄĽs": 146932, "lub": 134993, "mande": 132655, ".reg": 7031, "Ġsuccesses": 46798, "'],čĊ": 30273, "Ġwirklich": 55438, "ĠSide": 16642, "çĿĢæĢ¥": 108088, "ĠStir": 63732, "Neil": 61506, ":F": 69335, "æĶ¹éĿ©å¼ĢæĶ¾": 105573, "âĪĿ": 153403, "ĠOrchard": 82463, "æ·±åıĹ": 106627, "-groups": 89606, "ĠEnterprise": 25394, "(numero": 89433, "è¿ĩåī©": 116189, "flation": 63689, "æİ¢å¯»": 117374, ".radio": 72721, "Ġbree": 66809, "mlin": 40698, "âĪĬ": 153386, "%d": 14830, "äºĨå¤§éĩı": 120970, "ĠÑģÐ¿Ð¾ÑĢÑĤÐ°": 139675, "#endregion": 26924, "?(": 14427, "åŁĥåıĬ": 109965, "Notes": 21615, "æ½¢": 119533, "Almost": 38474, "Ġrapporto": 143897, "/link": 55059, "ĠEyes": 41759, "-f": 2220, "-twitter": 58682, "caff": 23712, "å¤ļå¤ļ": 106891, "']:": 43171, "ä»£è¡¨çļĦ": 109228, "Ġkonstruk": 148759, "è¿ĩä¸Ĭ": 120988, "ĠåĽ½éĻħ": 108921, "move": 3397, "Ġ\",\");Ċ": 90819, "#@": 81400, "æ¶Įåħ¥": 126798, "Ġredevelopment": 86913, "ä½łåĨį": 126704, "1941": 124765, "_pv": 90379, "æĪĸæĺ¯": 102821, "ĠMarshall": 29299, "ĠÐ»Ð¸ÑĤÐµÑĢÐ°": 133392, "SCRI": 15008, "_advanced": 83151, "æ³ķå¾ĭæ³ķè§Ħ": 105676, "ĉERROR": 87566, "Object": 1190, "ĠFÃ¼r": 45212, "ĠÐ¿ÑĢÐ¾ÑĤÐ¸Ð²": 128332, "WC": 25381, "_middle": 62139, "ĠÃļ": 133534, "rightarrow": 19454, "åĽ½åĢº": 117605, "_proc": 24363, "Îł": 129284, "íķĺëĬĶ": 42660, "Ð¿Ð¾ÑĢÑĤ": 134902, "çªģçł´": 101301, "_CHANGED": 47797, "Ġsilhouette": 56345, "ĠMonday": 7014, "aits": 56099, "å·¥ä¼ļ": 104716, "ĠÐĴÐ¾ÑģÑĤ": 137623, "ĠLeah": 66374, "èĢģåŃĲ": 110197, "ĠÃ®ns": 151264, "ĠmatÃ©ria": 138271, "ç»£": 105383, "DE": 1150, "Ġsogen": 140777, "Dash": 42022, "è§Ħå¾ĭçļĦ": 123434, "Ġinitiate": 37901, "å¤īãĤı": 144488, "ÙģØ¹": 133236, "Ġmostra": 91324, "ourses": 16335, "_album": 52887, "Ġfru": 131898, "tive": 127711, "<Card": 56418, "ĠFalcons": 52985, "Ġteeth": 17806, "ither": 2485, "æ¿Ģ": 99220, "Ġknight": 46322, "ĠÑĥÐºÑĢÐµÐ¿": 143441, "_Title": 71450, "ĠJ": 619, "æºĲåľ°": 121660, "Ġ_('": 35576, "Ġcoup": 15694, "Provid": 35640, "Ð¿Ð¸Ñģ": 29552, "ĠSchul": 52640, "ä¹¦æ³ķ": 102697, "à¥Ĥ": 151399, "å·¥äºĭ": 149169, "Ġprimeros": 136050, "CALLTYPE": 46712, "itet": 41303, ".translatesAutoresizingMaskIntoConstraints": 62030, "Ġdrought": 36555, "selected": 4525, "å¤§äºİ": 103590, "ĠAUTHOR": 40584, "ĠChun": 88613, "æ·¡æ°´": 120172, "ocrine": 77015, "zne": 143884, ">\\": 8448, "åĻ¨ä»¶": 108297, "ĠConsidering": 55403, "_protocol": 34706, "vak": 53264, "Ġinex": 54514, "igna": 137902, "ÐºÐ°Ð¿": 145485, "å£«æ°Ķ": 124428, "ĉlog": 6725, "fri": 134692, "Ġjeste": 143738, "åİļåº¦": 105762, "pink": 62800, "å·²ç»ı": 98955, "ĠHoney": 39400, "ĠPacific": 16448, "ENTRY": 45877, "Ð¸Ð²Ð½ÑĭÐµ": 145950, "Ġbet": 1274, "ĠLands": 37229, "ologically": 29241, "åİħ": 99922, "ĠØ¬Ø°": 149670, "Ġdeeply": 17227, "ĠÐ¼Ð¾Ð¶Ð½Ð°": 136644, "ÑĢÐ°": 22072, "]<": 33974, "Ġindication": 26951, "åĲĮåŃ¦çļĦ": 121659, ");ĊĊĊĊĊ": 81541, "ÛĮØ·": 150777, "ĠinitialValues": 92700, "ä¾ĿéĿł": 103403, "Ġcondemning": 80477, "Ġpem": 53822, ".bottomAnchor": 72247, "èµĺ": 114972, "ĠfÃºtbol": 143496, "ĠPediatrics": 97933, "æĮ«": 104987, "Ġasistencia": 151025, "ç»´æĬ¤": 100942, "ĠStep": 14811, "è´¦": 100740, "ĠClassNotFoundException": 65163, "è³¼": 133841, "Categories": 20923, "Ġrepaired": 51394, "ÙĨÙģ": 148815, "Ġconnecting": 20867, "è®¡": 98515, "ÐļÐ°Ðº": 128355, "Ġcomprises": 39776, "æĺ¯å¯¹": 102416, "TECTION": 75101, "åıªè¦ģæĺ¯": 118475, "ĠÑĢÐ°ÑģÑģÐºÐ°Ð·": 129115, "stance": 1309, "Ġbundled": 51112, "ovsky": 77949, "Ġfatalities": 69681, "onder": 14175, "æĬĦè¢Ń": 114710, "(pop": 39927, "ĠHasan": 98132, "Ġpraised": 36191, "/frontend": 72597, "Ġrisky": 39952, "cleanup": 54865, "ĠConstitu": 136845, "Blend": 44734, "ĠéĹ¨": 118859, "Ġorientation": 16708, "èĥ¤": 123502, "åį³ä¾¿æĺ¯": 111783, "æıĲåīį": 101690, "AppDelegate": 46283, "']){Ċ": 51897, "åĩºèµ°": 126043, "]]];Ċ": 95910, "å¤§æ¦Ĥçİĩ": 117778, "OrderId": 61666, "å°±è¦ģ": 101428, "(split": 39737, "æ°ĳå±ħ": 119578, "Ġmandates": 74364, "-->Ċ": 9987, ".lng": 56631, "ĠHW": 26584, "ĠhashMap": 67465, "éĺ¿": 99314, "Ġ:-": 20908, "_parameter": 24823, "-items": 17435, "å¹¶çĶ¨": 116032, "Ġuploads": 66078, "áº¤": 148875, "SignUp": 57132, "Ġnack": 34173, "ä¼ĺåĮĸ": 101029, "å¢ŀåĢ¼ç¨İ": 109848, ".Comp": 66755, "Ġinclusion": 27098, "/animations": 76776, "ä¸įåĩĨ": 113123, "åİ¿çº§": 105942, "ĠParks": 37971, "ĠktÃ³rym": 137116, "éº»å°Ĩ": 116791, "ĠprÃ¡cticas": 146873, "ĠDÆ°Æ¡ng": 141527, "ĠCreator": 35500, "block": 4574, "ĠALL": 13089, "ç¦»åĲĪ": 114779, "å·®å¼Ĥæľī": 113419, "ipple": 50827, "Ġpsy": 25065, "Ġsanct": 34319, "Ġbranches": 23028, "ĠNexus": 39803, "ĠÐµÐ´Ð¸Ð½": 129809, "quement": 131169, "ĠBRO": 76965, "map": 2186, "æ±ĩç¼ĸ": 119672, "ssen": 129158, "but": 8087, "Ġpreoc": 131401, "favicon": 54193, "ĠOrc": 56205, "ĠCLR": 60265, "aphael": 73660, "åĢŁåĬ©": 104682, "Ð°Ð½Ð½Ñĭ": 27053, "ĠBoat": 43976, "ĠCAUSED": 30260, "oloji": 149267, "Ô²": 154294, "Ġpity": 56560, "Ġcrumbs": 95766, "Writing": 39101, "ìĹ°": 134745, "MainActivity": 58815, "Ġalterations": 59568, "ĠÐ²Ð»Ð°Ð³": 146519, "âĭ¿": 153625, ".AddInParameter": 90620, "Cached": 69769, "Ġdraining": 72446, "}?": 52058, "Ġleftovers": 91393, "female": 42390, "ĠÏĦÎ·": 127535, "Ð°Ð²Ð½Ð¾": 133314, "MODEL": 60016, "ãĤ©": 137629, ".nano": 69353, "%C": 66104, "\\:": 65443, "ĠHere": 5692, "Ġhabitats": 70070, "checksum": 70210, "_ids": 8076, "Ġshale": 73431, "Ð°ÑģÑĤÐµÑĢ": 144398, "Ġhearty": 80887, "Ġnotamment": 79444, "Ġlee": 81274, "Ġdeciding": 29023, "ĠMining": 25751, "åıĳçĶŁäºİ": 122763, "æĹłéĻĲçļĦ": 119593, "ĠauÃŁer": 132705, "Edward": 83806, "Ġdocumentos": 98187, "åĲĮåŃ¦": 100085, "/IP": 83743, ",true": 21297, "æľīå¤ļç§į": 122511, "ĠPCA": 60502, "å§Ĩ": 101025, "(json": 9301, "Ġchubby": 92991, "Ġconduc": 73716, "ĠÐ¶ÑĥÑĢÐ½Ð°Ð»": 140134, "COVID": 77337, "çĻ½çŁ³": 125748, "å¯¹å¤ĸ": 102600, "Ġeder": 136964, ".Produ": 96701, "_hop": 97365, "ä¹ĭä½Ļ": 111326, "Rib": 98045, ".med": 60595, "Ġattenuation": 93328, "Ġlurking": 81304, "Ġliquidity": 51672, "Ġreplic": 28441, "Ã¼hl": 92329, "Ġkrat": 90255, "Ġseam": 26311, "Ġbelief": 16382, "æł½": 103344, "(startDate": 83822, "phthalm": 80183, "Gil": 96225, "Ġmaterially": 88853, "_DF": 92085, "etypes": 67061, "|R": 85979, "Ġbeispiel": 135943, "pository": 3099, "_SECURE": 77223, "ĉuse": 41583, "Ð³Ð»Ð¸Ð¹": 132275, ".readyState": 48274, "ĉad": 97942, "å¯¹åĨ³": 120050, "\">',": 77676, "Ġaplicar": 144983, "æĿĳå§Ķä¼ļ": 108855, "Ġren": 5672, "ĠSkinny": 93433, "è°·çī©": 126401, "emento": 74690, "Ġvp": 34650, "Ġcomprising": 44970, "Ġskirts": 75598, "gate": 24526, "Ð´Ð¾Ð¼": 137065, "à¥Ĩ": 151403, "Screenshot": 62082, "Ġgarantizar": 146258, "å¸¸æķ°": 119412, "erring": 14433, "Ġingredi": 144583, "adle": 70813, ".getParameter": 18106, "Ġprincipio": 91280, "ĠÑĤÐ°": 128189, "inations": 12628, "Seen": 84968, "ä¹Łæľīäºº": 119115, "ðŁĸ£": 152243, "ĠObj": 26553, "Ġversione": 147981, "(cap": 51048, "ÙĦÛĮ": 127925, "è¿ľæĸ¹": 111674, "á»Ļc": 128857, "Ġleaks": 36505, "æľĢéĢĤåĲĪ": 117213, "roken": 81042, ".getError": 74403, "iming": 58668, "_object": 5314, "Ġcoppia": 81569, "Ġ*__": 36868, "èĬ±æľŁ": 121832, "æĬĹéľĩ": 114616, "ĠBowl": 20247, "Ð¶ÐµÐ½Ð¸Ðµ": 133736, "ĠQUESTION": 89180, "éĿŀå¸¸éĩįè¦ģçļĦ": 109897, "ĠPackers": 43279, "ĠÑĥÑĩÐµÑĤÐ¾Ð¼": 137619, "Ġzwar": 81982, "ĠEase": 93231, "-compose": 64595, "Ø¸Ùħ": 137598, ".setAuto": 87662, "Ġstuck": 15688, "ResourceManager": 32351, "isActive": 31681, "cji": 128871, "ĠEd": 3199, "ĠÑĥÑģÑĤÐ¾Ð¹ÑĩÐ¸Ð²": 135771, "(theta": 27883, ".CG": 90890, "Failure": 17483, "å²ŃåįĹ": 118470, "à¼Ķ": 153929, "Ġå¤ª": 114844, "çļĦçī©è´¨": 122821, "-MM": 18475, "acts": 11354, "azienda": 147866, "\\ActiveForm": 86303, "tabpanel": 72679, "åıªä¸įè¿ĩ": 105492, "ĠEngel": 90134, "Ġlions": 67538, "reen": 4442, "ultip": 9840, "1938": 123483, ".unit": 26072, "points": 7706, "ĠApproved": 50740, "(src": 14695, ".Be": 70391, "å°ıæĿİ": 123790, "ĠMyBase": 59715, "Ġautoimmune": 86370, "Ġ});ĊĊ": 3011, "Ãĳ": 70812, "åİĨ": 98818, "_pr": 5294, "!<": 86212, "/cms": 97039, "rega": 38668, "Ġasign": 59661, "Ġteams": 7263, "åĽ°": 99573, "æľīåĬĽçļĦ": 109208, "->$": 36535, "âī¼": 153495, "IGATION": 65213, "Ġheroine": 79445, "ufreq": 90242, "ĠOlympus": 95980, "ĠÐ¡Ð¨ÐĲ": 129754, ".getColumn": 27305, "Ġalkohol": 143435, "OUCH": 92697, "Ð¿ÑĢÐ¸Ð¼ÐµÑĢ": 131139, "(CC": 73495, "ä¸Ģçº¿": 102663, "åıĺéĩı": 104497, "æ¶¡": 106835, "_cb": 16436, "çģµèĬĿ": 126811, "iculture": 91949, "roring": 88838, "nt": 406, "Ġadher": 34777, "Ġnothing": 4302, "like": 4803, "Persons": 90570, "accent": 76928, "ä¹Łåı¯ä»¥": 100785, "ĠGrow": 46273, "Ġ[])Ċ": 27522, "Ġphysiological": 51753, "worm": 55267, "Ġmeisje": 91773, ">,": 8065, "Åŀ": 131660, "ĠĠĠĠĠĠĠĠĉ": 17340, "ampoco": 137086, "ĉprocess": 52960, "ĠExpr": 28716, "ĠÐĵÐµÑĢÐ¼Ð°Ð½Ð¸Ð¸": 139285, "çļĦè¡Ģ": 122798, "Ġtaking": 4633, "(description": 29717, "Ġcircum": 10193, "fak": 139694, "Ġaltern": 6919, "è½½ä½ĵ": 105451, "Suit": 62457, "Ġmeng": 19692, "ĠTrab": 143835, "Ġfolder": 8526, "Ġcomic": 19687, "player": 3434, "Ġdetectives": 58354, "Ġparsed": 15664, "åĮĪçīĻåĪ©": 122075, "aint": 1641, "ĠÐ½ÐµÐ¼": 128213, "ĠÐ²Ð¾Ð¿ÑĢÐ¾ÑģÐ°Ð¼": 139430, "=$(\"#": 79241, "ĠRTE": 81186, "Ġdivergence": 80501, "è·¯å¾Ħ": 103879, "WI": 59777, "Ã£y": 141359, ".decorate": 79410, "ĠÑīÐ¾Ð´Ð¾": 149830, "ĠParan": 96468, "ÐµÐºÐ°": 127842, "lej": 129759, "chooser": 66869, "_gamma": 60749, "èģĮä¸ļåŃ¦æł¡": 121677, "åĽŀæļĸ": 124697, "å·®å¼Ĥ": 100732, "æ¯ĶèµĽ": 100083, "backend": 20895, "ÑĤÐ¾Ðµ": 149928, "á»Ľ": 43655, "ungan": 50851, "ĠIntel": 15599, "could": 27980, "èĳ¡èĲĦç³ĸ": 112967, "æ°´åĪĨ": 104533, "reation": 26368, "_WORD": 33078, "(position": 12464, "ĠOver": 6065, "ĠLer": 79198, "images": 3642, "Ġnyt": 137311, "Ġscales": 28305, "ĠÐĲÐ½Ð´ÑĢÐµ": 142510, "éĻª": 100898, "sizes": 52802, "Ġsteht": 54021, "****************************************************************": 4077, "_formula": 63412, "Ġfeder": 40877, ".getField": 42630, "×": 147, "Ġquadr": 29029, "')))Ċ": 45559, "Ġlange": 51944, "Ġsentimental": 91167, ".getFile": 56351, "ĠGemeinde": 140754, "Ã³z": 138040, "Øµ": 41358, "Ġconos": 137323, "ĠVista": 34442, "äººå·¥": 101814, "ç»Ļäººä»¥": 126199, ".âĢĵ": 95453, "Ġmarrying": 77126, "ĠnextPage": 82905, "âļŁ": 154723, "ÑģÐ»": 39719, "åĽŀ": 98566, "ãĥĥãĤ·ãĥ¥": 141371, "å¯¹äººä½ĵ": 118023, "áŁ¥": 154265, "/end": 82161, "Ġenk": 134627, "Ġenlarg": 39722, "_PKG": 93335, ".\");": 55063, "åĩł": 98789, ".lesson": 94642, "ĠBank": 8546, "enda": 9692, "ĠOfficers": 48540, "ĠChief": 14334, "ĉecho": 5346, "Ġexplos": 13885, "Ġerstellen": 146819, "Mem": 18783, "çĶ¨æĸĻ": 119947, "_diff": 15838, "_static": 25282, "eksi": 136662, "_Target": 75220, "(\"</": 31468, "Ġgunmen": 96845, "Ġvaccinated": 68943, "Ġ})(": 48578, "product": 3031, "etxt": 88165, "åĮł": 104386, "_DL": 73853, "ĠmÃ¶glichst": 145829, "ĠaccessToken": 37529, "Ġpassionately": 91054, "ĠphÃ©p": 140346, "Ġhomogeneous": 85470, "Ġsoils": 67963, "Ou": 148905, "Ġindifference": 83479, ".assertIn": 52608, "ĠJesus": 10583, "_TOOL": 56804, "ĠÐ¸Ð´ÑĥÑĤ": 146735, "...\");ĊĊ": 92266, "ĠKÄį": 137561, "ĠBrowserModule": 37177, "ä¸Ģæ³¢": 111565, "_pipe": 41626, "/cs": 90867, "Ġsonu": 138463, "etime": 4107, "ĠÐ·Ð°Ð²Ð¾Ð´": 132953, "Ġbabe": 40025, "Ġ@{@\"": 91846, ",))Ċ": 52924, "Ð»Ð°Ð¼Ð¸": 140586, "Ġháº¡": 146106, "ÐµÑĢÐ¸Ñı": 136028, "eu": 20088, "åĵģå°Ŀ": 110774, "ĠÙħØµÙĨØ¹": 140274, "Ġzna": 130695, "åĻª": 103533, "(dist": 35986, "-fat": 62805, "420": 125603, "Jacob": 93376, "åĨ·æĪĺ": 123892, "ĠØ§ÙĦÙĥ": 128294, "Ġ[/": 64454, "Ġ'./../": 54731, "ĠÐ¾ÑģÑĥÑīÐµÑģÑĤÐ²Ð»ÑıÐµÑĤÑģÑı": 136249, "Ġfixing": 35076, "Ġpro": 462, "Ġtypedef": 13492, "Ġevasion": 76123, "(ts": 35685, "Terms": 42883, "ĠÐºÐ²Ð°Ð´ÑĢÐ°ÑĤ": 142017, "nature": 66226, "Ġsummon": 27453, "æ¤į": 99373, "(Float": 56794, "åīįæīĢæľªæľīçļĦ": 115879, "ĠÐ²ÑģÐ»ÐµÐ´": 145205, "ÑĦÑĥÐ½Ðº": 150789, "rawing": 1696, "OLL": 21484, "Ġfaible": 146437, ".DAY": 62076, "BracketAccess": 92768, "ÐŀÐ´": 131749, "Ġarrangement": 26031, "ĠRDD": 76638, "ATIVE": 23152, "_estimate": 78088, "(square": 85629, "ĠÐ¿ÑĢÐ¸Ð²Ð°ÑĤ": 149700, "osity": 21998, "Ġconvertir": 137924, "Lux": 76662, "è¡ĢèĦĤ": 112738, "ä¸Ģèĩ´": 101653, "(di": 55121, "æ°´çļĦ": 103514, "Ġmartes": 141745, "stripe": 60802, "ĠTÃ¢y": 142495, "Ġpill": 15165, "è£¹": 104671, "OVE": 36564, "ĠGenesis": 40563, "Ã¼ks": 134648, "ÑĢÐµÐ·Ð¸Ð´": 133351, "ä¸įæ¸ħæ¥ļ": 111590, "Ġreal": 1931, "Ġcrash": 9915, "ðŁĺº": 152394, "[^": 38605, "Ġswagger": 60397, "ĉinclude": 24623, "mesh": 23441, "ä¸įçŁ¥éģĵ": 100292, "Ġbezo": 142210, "oser": 23373, "(PyObject": 69421, "Ä±ldÄ±": 133121, ".replace": 6980, "()+": 17121, "ĠWriter": 29295, "tijd": 131571, "tek": 42469, "Ð¾ÑĢÐ¾ÑĤ": 130290, "ĠThe": 576, "ÙĪØ¶": 131611, "ä¸½": 99521, "æ¸Ķä¸ļ": 112512, "0": 15, "éĩĳå±±": 109285, "çļĦæĹ¶åĪ»": 116343, "-place": 41426, "ĠFixture": 72685, "ĠÑģÑĤÐ°Ð²ÐºÐ°": 150624, "_CTRL": 19134, "ĠBuck": 25983, "ĠtÃ¤n": 140231, "ĠØ£Øµ": 139456, "è®²è§£äºĨ": 126828, "ç´§çĽ¯": 126262, "ĠMu": 14776, "Ġtunnels": 52379, "%),": 33709, "WAY": 41567, "stdint": 31304, "ĠJamie": 35578, "ĉtrigger": 82539, "ĠglGetUniformLocation": 91941, "oft": 14109, "æĿ¿çļĦ": 111141, "ĠSophia": 69846, "normalized": 38253, "ĠOLD": 64417, "area": 4798, "Ġpractitioners": 41857, ".fasta": 98210, "_SPEC": 36251, "(Collections": 95310, ")dealloc": 80424, "ðŁĮ»": 151627, ".toolbox": 87534, "ðŁĵĻ": 152041, "waÅ¼": 130816, "Ġcognitive": 24599, "ictions": 21389, "æ¾³å¤§åĪ©äºļ": 105178, "(Data": 18924, "_unc": 75968, "izzard": 37947, "...')Ċ": 47164, "ÑģÐ¿ÐµÐºÑĤ": 137213, "rax": 68265, "ĠØ": 8802, "schule": 135857, "å·¥ä¿¡": 115965, "ĠML": 19577, "Ġconsente": 146754, "ĠÐĴÐµÑĢ": 149851, "ĠÐ²Ð¾Ð·ÑĢÐ°ÑģÑĤ": 129697, "ÐĨ": 131868, "agedList": 87038, ";;;;;;;;;;;;;;;;": 70866, "ĠCMD": 26826, "ĠBarack": 23474, "ĉrt": 54691, "ä½ıçļĦ": 118288, "äººçī©çļĦ": 118394, "ĠAutor": 56490, "ivas": 38616, "ä¸ŃæĹ¥": 114775, "çĬ¯": 99850, "\"G": 88459, "_Struct": 71692, "Ġdressing": 31392, "zf": 68881, "Ġconstr": 18907, "ĠAxes": 88962, "ĠEXPECT": 8918, "Ã©lÃ©": 28779, "è¿İæĪĺ": 125430, "ĠmÆ¡": 148514, "ãģ§ãģ¯": 75477, "ĠapplyMiddleware": 82674, "urger": 34130, "Ð¾Ð¿ÑĢÐ¸Ð¼ÐµÑĩÐ°ÑĤÐµÐ»ÑĮ": 151163, "PBS": 81831, "Ġtakeover": 62761, "CSR": 69500, "æĵħéķ¿": 106300, "ĠÃ¡reas": 93272, "äººæ°ĳä»£è¡¨å¤§ä¼ļ": 108351, "itere": 41610, "1": 16, "Ġalloc": 5574, "ĠRÃ¼ck": 74483, "Ġcohesive": 85698, "Ġsolving": 21776, "ĠRFID": 85171, "åĨłçĬ¶çĹħæ¯Ĵ": 112517, "Ġcomplementary": 57047, "Ġconsiste": 136231, "ategorias": 50054, "Ġvisiting": 16704, "éĴ§": 110546, "Ġalias": 15522, "[:-": 25968, "publication": 70620, "vw": 34261, "Ġwoes": 76116, "Ġtecnolog": 129941, "Ġcustomize": 30961, "aney": 80528, "åĨĻäºĨ": 109982, "å®īå®ģ": 114824, "ĠNi": 21837, "ĉĉĉĉĉĉĉ": 2683, "Ġìĺ": 38315, "ĠSports": 13172, "ĠElena": 68076, "ç»Łç»Ł": 120363, "åĮºåĪĨ": 105547, "éĩįå¤§é¡¹çĽ®": 124061, "ĠP": 393, "ĠManual": 14529, "_OTHER": 55660, "æĢ§ä¸İ": 107925, "010": 121570, "ä¸ºåĽ½": 120436, ".nlm": 87656, "alen": 35471, "éĩįåĽŀ": 119372, "Ġ3": 98984, "Ġimgs": 55786, "Still": 23258, "zsche": 84032, "Senate": 85296, "èµ°åĲ§": 125491, "vincia": 56780, "ynthia": 63086, "FileSync": 30980, "ĠÐ¸Ð½Ñģ": 147747, "ç¾İçļĦ": 101279, "leneck": 58606, "\"strings": 39529, "Ġautomate": 68112, "âļ¿": 154755, "zyw": 136730, "Î¬": 73558, "ĠĠĠĠĠĠĠĠĠĠĠĠĠĠĠĠĠĠĠĠĠĠĠĠĠĠĠĠĠĠĠĠĠĠĠĠĊ": 45536, "Ġcommit": 5266, "æĪĳè®¤ä¸º": 105697, "Ġrunaway": 89891, "ĠRift": 55947, "ĠÐ´Ð¾Ð²ÐµÑĢ": 134018, "bla": 64255, "çľĭæĪĳ": 115239, "Ġsuppressing": 96872, "ĉj": 12422, "_phone": 22099, "Ġkeynote": 70373, "ĠÐłÐ¾Ñģ": 137429, "/star": 78626, "---čĊ": 94010, "TEGR": 67509, "è¿ĳæĹ¥": 102062, "Ġlo": 775, "ĠFAST": 50400, "adurch": 135444, "ĠÐ½Ð°ÑħÐ¾Ð´Ð¸ÑĤÑĮÑģÑı": 151012, "/swagger": 80274, "æĪĲéĥ½": 101621, "ĠCaps": 43116, "æĺ±": 119211, "plate": 1750, "åĨħèĨľ": 112661, "ĠØ§ÙĨØª": 130088, "ĠWallet": 36298, "æ³ķå®ļä»£è¡¨äºº": 102653, ".elapsed": 76863, "ĠØ§ÙĦÙĬ": 130217, "ĠToolStrip": 61159, "å®ŀè´¨æĢ§": 121302, "åĽłä¸ºæľī": 119719, "Ġthreads": 14554, "select": 1742, "Ġnháº¡c": 143992, "operands": 91814, "Ġestimating": 75764, "Ġcutter": 61173, "ĠÑĢÑĥÐºÐ°Ñħ": 140852, "Ġgros": 24416, "ird": 2603, "ĉput": 44796, "Ġcompetency": 92025, "ĠÐ¿Ð¾ÑģÐµÐ»": 135084, "original": 9884, "ĠbirÃ§ok": 146869, "urf": 29254, "ä¸ĢæŃ¥": 99524, "èĦļè¸ıå®ŀåľ°": 123250, "ðŁĸĪ": 152216, "ĠLetter": 26573, "Integral": 65682, "Ġcasually": 64147, "æĮ¯åĬ¨": 107812, "Ġweir": 96175, "Ġproxy": 13283, "departureday": 94832, "ĠTyped": 50222, ".Resources": 21651, "æµ¦ä¸ľ": 111742, "à¤į": 151359, "Ġhelpers": 30070, "èĥŀèĥİ": 121763, "acct": 94283, "Į": 234, "unteers": 62243, "ĉgoto": 11695, "_backend": 39792, "Ġrenown": 33555, "</arg_value>": 154850, ".Active": 28652, "ç»Ī": 99014, "ĉĉĉĉĉčĊ": 32398, ".lists": 94147, "<section": 29999, "ä¹Łå¤ª": 124009, "kiej": 148569, ".Cancel": 36306, ".isEmpty": 9205, "iefs": 29706, "ĠMt": 35332, "rypto": 9440, "ISIBLE": 16553, "_Utils": 90415, "ĠÑģÑĦÐ¾ÑĢÐ¼Ð¸ÑĢÐ¾Ð²": 145677, "ĠÐ´ÐµÐ¿ÑĥÑĤ": 133479, "Ġvaries": 34060, "Unis": 137262, "ä¸ļä½Ļ": 111228, "ĠOok": 93758, "ĠMAT": 24719, "æ±Ĥæĺ¯": 115795, "âĢĻan": 86340, "ĠÐ±ÑĢÑİ": 143036, "xfc": 40206, "Online": 19561, "Ġunanim": 39756, "ustra": 135648, "byt": 137296, "YN": 24204, "_ts": 24947, ";\"Ċ": 41420, "Ġquestioned": 28241, "_voltage": 62315, "ç¾¤ä¼ĹçļĦ": 110332, "ä¸ĬåįĬ": 112157, "itÃ¤": 63859, "ÑĥÐ¼Ð°": 128327, "ĠìľĦì¹ĺ": 98147, "æ±ķ": 109063, "Ġdeux": 25473, "ä¸įåıĳ": 127052, "target": 5657, "åħ¥éĢī": 104934, "ðŁİ³": 151747, "_ue": 90305, "orÃŃas": 149553, "èĩªåĬ¨åĮĸ": 104572, "Ġexcell": 8249, "Ġquestionnaire": 47566, "Ġdeprived": 61151, "ĠÐŀÐº": 146937, ".UseText": 83481, "Ġthá»©c": 130655, "uo": 23074, "bomb": 77716, "fir": 90868, "Ġnuru": 74519, "println": 33493, "ĠTrib": 20480, "ĠBbw": 84892, "Ġbereit": 137446, "æ¥¼ä¸»": 125978, "çĥĺå¹²": 117295, "_AC": 15488, "æīĵå¼ĢäºĨ": 116223, "åĨ²åĪº": 113742, "ĠÙĪØµ": 147828, "iges": 51323, "Ġlado": 43175, "åĪĨçļĦ": 105985, "ĠTrek": 30353, "ĠosiÄħ": 148806, "ĠÏĦÏģÏĮ": 145740, "/topics": 57268, "ç½¢äºĨ": 108477, "Ġrogue": 53533, "Ġunt": 13058, "Ð»Ð°Ð½Ð¸ÑĢÐ¾Ð²": 139151, "ĠtempÃ©ra": 141647, "ĠÐ´ÑİÐ¹": 147520, "ĠFunctor": 86906, "]-": 11690, "ĠgetProduct": 77575, "pora": 70134, "ress": 673, "(len": 6901, "Ġfondament": 140482, "ĠBooker": 64520, "Ġdisadv": 29731, "_google": 46864, "ĠConsort": 67111, "Ġbaskets": 67847, "ä¹ŁæĽ´": 118627, "è®¼": 101802, "Ġ(@": 8005, "routes": 19756, "Ġratings": 18074, "âĽĻ": 154781, "Ġchapters": 29520, "sza": 131695, "Ġagile": 61033, "ĉbr": 79609, "Ġéĩįè¦ģ": 124321, "Ġprofessions": 68193, "ĠÑĥÑĩÐ°ÑģÑĤÐ½Ð¸ÐºÐ¾Ð²": 135300, "è¯ļæĮļ": 126606, "é£Łè°±": 119153, "Ġdemos": 66764, "ĠEN": 5190, "ĠTREE": 71214, "åĲĪçħ§": 124845, "å¥³éĥİ": 125540, "Shader": 13477, ".coords": 43741, "ìļ´": 92886, "Ġathletics": 72511, "Assets": 26793, "(Paint": 94475, "ĠÐ´ÑĢÑĥÐ·": 131804, "ĠFoo": 33268, "ÃŃtulos": 141271, "æĦīå¿«çļĦ": 120379, "orÃŃa": 133204, "_FLOAT": 21446, "ĠæĶ¿æ²»": 123594, "total": 5035, "SX": 89739, "idos": 13340, "Ġ::::::::": 33098, "epend": 12763, "-fed": 77374, "Ø¨ÛĮÙĨ": 147997, "éģķãģĦ": 143394, "Ġblev": 71448, "ĠFibonacci": 79043, "_STEP": 39750, "äº§ä¸ļçļĦåıĳå±ķ": 126346, "_gs": 96119, "ICE": 5487, "ĠDETAILS": 76384, "ingungen": 134266, "ÐŀÑģÐ½Ð¾Ð²": 135245, "ãĤĴæ±": 147728, "companyId": 91927, "Ð¾Ð±ÑīÐµ": 129451, ".ly": 27161, "ĠLost": 27163, "ĠLamp": 40946, "Ġinfertility": 93746, "_person": 23352, "bung": 82902, "_n": 1089, "åĩ¸": 103906, "Í¼": 153301, "abor": 4324, "ship": 5270, "é¦Ļæ¸¯": 100482, "åºĶæĺ¯": 118056, "ä¸İåĪĨæŀĲ": 117113, "Ġdetrimental": 63511, "Ġrestraining": 82604, "Ø§ØŃ": 127765, "æĪĳä»¬æĿ¥": 121788, "Ġ'*'": 30581, "Ġë¬´": 135577, "ĠEnumerable": 43870, "_issue": 52986, "Ġlinea": 53498, "ĠFe": 3841, "Ġ|_|": 65609, "Cas": 48925, "ENO": 62912, ".npy": 50914, "Ġconfidentiality": 63735, ".marker": 64492, "Ġspend": 8328, "ä¼Ĺ": 98885, "Ġarmor": 19994, "Ġimread": 81741, "Ġyn": 80107, "unittest": 90246, "ëĭĪ": 82347, "éĿĻèĦī": 104334, "(APP": 77709, "ĠÑĦÐ°Ð¼Ð¸": 148560, "lease": 1623, "ä¸ĸçķĮéĩĮ": 117974, "patterns": 25890, "Installed": 60374, "ĠHuff": 34867, "Ġmesure": 83129, "/component": 62514, "ĉEIF": 36087, "å¼Ģçİ©ç¬ĳ": 113030, "}while": 83603, "ĠÑĥÑĢÐ¾Ð²": 128465, "chart": 15929, "ĠValueEventListener": 97317, "åıĬåĳ¨è¾¹": 124135, "ĠFace": 18564, "Ø¨ÙĬ": 128014, "(words": 36106, "ĠAva": 90889, "æĿŀ": 108679, "ibBundleOrNil": 88649, "Î´Î¹Î¬": 141199, "Ġconsecu": 136125, "Ġlands": 11829, "/u": 33404, "ĠngÃły": 128803, "ĠmoÅ¼li": 85348, "Ġ\"...": 38505, "allery": 7447, "_FEED": 73598, "elihood": 19868, "persistent": 68876, "Previously": 81269, "äººæīįåŁ¹åħ»": 106053, "Ġdog": 5562, "Ġstreamlined": 73484, "ĠSPDX": 35310, "ãĤ·ãĥ£": 132100, "åĮ»åĬ¡": 109671, "ĠBenghazi": 67276, "Ġrevolt": 64361, "buquerque": 67680, "ĠUkraine": 18720, "ĠÑĢÐ°ÑģÐ¿ÑĢÐ¾ÑģÑĤ": 130447, "Ġhoáº·c": 130411, "ĠVÃ¬": 142800, "Ġrz": 52651, "umptech": 62077, "WATCH": 64026, "Ġì£¼": 55299, "æī¾æĪĳ": 114437, "éĤ®ç¥¨": 118128, "Ġeigen": 28622, "ĠGD": 39412, "çīĽä»Ķè£¤": 114672, "Golden": 59375, "çīĽ": 99510, "_VEC": 70176, "Ġsd": 20542, "Ġstake": 18250, "Ġexploiting": 70072, "è·³": 100405, "æ±ķå¤´": 117212, "éŃĶæ³ķ": 106859, "ĠDVDs": 62886, "Ø§ÙĦØ«": 145599, "_lst": 31844, "èµĽä¸Ń": 123393, "(\",\",": 42488, "<html": 13736, "Ð°Ð²Ð¸Ñģ": 131702, "ÑĢÐ°Ð·Ñĥ": 129290, "())ĊĊĊ": 51414, "Ã©der": 138133, "\\Blueprint": 33957, "áŀ»": 154223, "Spiel": 144501, "Ġpreorder": 71301, "ĠdaÃŁ": 93770, "æ¨¡ä»¿": 106936, "Ð±ÑĢÐ°": 140178, "Ġstr": 607, "ĠMS": 10287, "ç»¯": 115705, "âĪ£": 153409, "ĠÑģÐ¾ÑģÑĤÐ°Ð²Ð»ÑıÐµÑĤ": 131554, ".`|`Ċ": 60769, "_accel": 52292, "æ¸¸æĪıçļĦ": 111455, "(custom": 60870, "ç¡ķ": 101398, ")<": 26347, "å®ĭæ±Ł": 117595, "quake": 66232, "usion": 7560, "tridges": 62390, "cobra": 58998, "Ġdecom": 28402, "Ġsupporters": 15499, "_gate": 54432, "Ġpredetermined": 85202, "tpl": 12614, "æĿ°åħĭ": 112957, "çļĦä¸Ģå¤©": 109573, "MK": 43885, "/original": 97309, "-Sh": 30144, "ĠÐ²Ð·Ð°Ð¸Ð¼": 132047, "ijf": 144027, "OptionPane": 19990, "Ġperson": 1697, "ĠInflate": 68239, "/comments": 48519, "ĠÑģÐ¸Ð¼Ð¿ÑĤÐ¾Ð¼": 132805, "Ġcrushing": 14422, "è¦ģä»¥": 110252, "ITER": 24657, "Ġrefugee": 33007, "éĺ²çģ«": 105961, "ĠGross": 42563, "ĠTranslate": 37544, "ĠApproach": 52732, "ĠØ¥Ø°Ø§": 136419, "ĠØªÙĪØ§ÙĨØ¯": 148911, "Ġtechnolog": 131105, "],čĊ": 18305, "ĠOil": 15514, "åįıåĴĮ": 121945, "alborg": 67706, "ĠÐ±Ð¾Ð»ÐµÐ·Ð½": 149997, "jÃ¤n": 138328, "(count": 11507, "_footer": 25885, "ðŁĶ£": 152115, "VEC": 75350, "ĠKing": 6210, "Ġpause": 18059, "ĠByteBuffer": 49975, "Ġ@$_": 97736, "Ġbiking": 65598, "Ġcomplicated": 16946, "ĠBoot": 14992, "ĠLove": 10684, "Ġsees": 15622, "Ġvisto": 64941, "Ġelsif": 24408, "Ġcolour": 12457, "Ġapare": 54800, "])):Ċ": 56666, "ĠChem": 18959, "åĿ¦åħĭ": 108931, ".setProperty": 31103, "ĠWooden": 62052, "Buying": 93916, "Ġweapon": 10283, "çªģåıĳ": 105489, "edriver": 70503, "ĠÐ¾Ð±": 21181, "also": 18621, "å¾Īéĩįè¦ģçļĦ": 121958, "_CSV": 95783, "Ġ#ĊĊ": 58203, "p": 79, "[c": 12441, "èĺĳ": 109178, "manifest": 42073, "ĠRecher": 149274, "_BIN": 55346, "Double": 7378, "Ġvaluation": 49840, "åįģä½Ļ": 112390, "/stretch": 74524, "ĠPreview": 31110, "ĠÐ§ÐµÑĢ": 132920, "Ġdun": 48705, "nac": 140743, "çļĦè¦ģ": 119329, "_xy": 40692, "Òĩ": 152795, "éĿ¢çĽ®": 115786, "Ġinsign": 52677, "inder": 5744, "fty": 36766, "áº¯c": 128529, "ç©¿éĢı": 117901, "].\"": 70433, "Ġfesta": 144588, "ĠFÃ¤llen": 146885, "Ġconstitutional": 24452, "Ġapology": 39937, "Ġimpulses": 85815, "ĠUrban": 28224, "Ġpourra": 134878, "-mod": 17059, "ĠAirbnb": 59683, "Ġreferencia": 81239, "Ġwished": 36004, ".owl": 90759, "Ġjlong": 73674, "ĉwant": 50447, "Ġ[].": 71820, "smooth": 56484, "Ġkiáº¿m": 138032, "ĠGilles": 75517, "åıªæľīè¿Ļæł·": 124488, "Ġcongestion": 53684, "keiten": 51367, ".flatMap": 71203, "Ġbaj": 89990, "Ġcoconut": 33296, "ĠÐ³Ð»Ð°Ð²Ð½Ð¾Ðµ": 134604, "osta": 27275, "_above": 76697, "_Db": 60540, "Ò±": 152837, "enade": 85330, "ĠDruck": 135553, "orpion": 71919, "è¿·æĥĳ": 118109, "<Animator": 76251, ".utilities": 62254, "Ġ{};Ċ": 9318, "Hol": 78033, "è²·": 130501, "alian": 10475, "ĠhÆ¡i": 143937, "soft": 3510, "lista": 32510, "ÙĪÙģ": 129834, "Ġchemin": 86942, "boxed": 78439, "æİ¥åĪ°": 105442, "ĠDamage": 20719, "Ġ\"->": 87986, "Partner": 59716, "DidLoad": 13102, "Ġcircular": 26844, "-big": 68898, "ĠÄ°ÅŁ": 137879, "Players": 24188, "iehung": 144969, "ĠRivera": 62661, "shopping": 50234, "ä¸Ģéĥ¨": 105412, "Ġnickname": 29290, "éªĳè¡Į": 117611, "æľīå¿ħè¦ģ": 111275, "ÐµÐ¹ÑģÑĤÐ²": 75920, "æĥ³è¿ĩ": 109153, "ĠÑĢÐ°Ð±Ð¾ÑĩÐµÐ³Ð¾": 148479, "(course": 45649, "è¾¹å½¢": 121908, "ymes": 78079, "Ġauthored": 65631, ".Stop": 30096, "ÙĪÙĨØ©": 138800, "(',');Ċ": 59753, "INU": 84236, "<D": 28955, "åĬŀäºĭå¤Ħ": 107511, "zeugen": 140693, "Ġturnaround": 66026, ".thread": 44942, "ĠCraig": 28317, "extract": 23428, "Ġhistoire": 85991, "Ng": 20851, "ĠÎĶ": 80506, "Ġmedication": 23158, "čĊĠĠĠĠĠĠĠĠčĊ": 42760, "Ġgenauso": 147341, "Ø§ÙħÙĦØ©": 151235, "Iron": 46113, "ĠDNS": 27506, "Ġbisog": 134488, "æĹģ": 100799, "Ġpii": 73456, "Ġbanca": 147042, "Ġbigotry": 76137, "ĠMagnus": 73225, "ĠÏĥÏħ": 128091, "Ġbandwidth": 33234, "ASE": 4066, "ĠÐ½Ð°ÑĩÐ¸Ð½": 135447, "_Lean": 94788, "-util": 72875, "ĠæĿŃå·ŀ": 116224, "ĠModelAndView": 34894, "_relation": 46694, "çļĦèĩªçĦ¶": 112276, "Ħìŀ¬": 79237, "_marshaled": 80703, "ĠÙħØ·": 129868, "foot": 5334, "ÙĬØ±Ø©": 130013, "_Call": 75424, ".removeItem": 43747, "(all": 20347, "Ġreferences": 15045, "(reg": 18361, "Ġ{*": 29693, "_segment": 27965, "Straight": 88119, "Ġsed": 10918, "Ġdiligence": 62042, "ĠTochter": 151072, "è¿ľäºĨ": 120192, "åıªåī©ä¸ĭ": 115734, "ĠAnda": 38927, "å·¥ä½ľä¼ļè®®": 109033, "Ġè¢«": 106600, "ç¥Ŀä½ł": 124934, "ãĥ¥ãĥ¼": 132616, "è®¾åľ¨": 117477, "ĠCommandType": 36735, "åĴ¯": 109877, "ÐºÐ¾Ð²ÑĭÑħ": 144711, "Ġspanning": 55412, "cak": 130153, "åĲīä»ĸ": 114448, "Ġpiscine": 145124, "æ±½è½¦çļĦ": 120018, "Ġåı£": 122337, "Ġballoons": 68965, "$v": 64545, "Ġrefreshed": 64653, "ãĤĵãģł": 134422, "ĠÑĥÐ»ÑĥÑĩÑĪ": 131086, "åıĳè¡ĮçļĦ": 119825, "Disappear": 62414, "uxt": 75792, "Handling": 38398, "å°½å¤´": 115948, "ĠASN": 54488, ".LE": 9939, "Ġrect": 7608, "Ġacts": 14047, "metrical": 57904, "ä¸Ńåħ¨ä¼ļç²¾ç¥ŀ": 118976, "Ġprincip": 7394, "emachine": 97635, "ĠdataSize": 89219, "ĠPic": 25817, "ĠÐºÑĢÐ°Ð¹": 131087, "iaÅĤ": 34116, "(ctx": 7502, "ĠDorm": 96712, "_iter": 11717, "Ġ(++": 46058, "ĠAustria": 34724, "maxLength": 60564, "ĠhÃ´tel": 139080, "ĠDana": 46326, "ĉhit": 93981, "ĠTig": 93091, "Ġçī¹åĪ«": 119753, "Ġ&$": 26862, "pectives": 32057, "ĠBenchmark": 61190, "ĠĠĠĠĠĠĠĠĠĠĠĠĠĠĠĊ": 26461, "pt": 417, "ĠAvoid": 33841, "MAP": 17592, "Mc": 25208, ".Unique": 86718, "Ġquedar": 145484, "åį³æĹ¥èµ·": 124984, "ĠNorfolk": 58288, "ĠSpeedway": 84943, "ĠKaepernick": 77985, "Ġmejora": 145634, "kin": 7988, "ÕĤ": 154310, "ä¹³å¤´": 119657, "/version": 63950, "å°¤ä¸ºéĩįè¦ģ": 119034, "Ġimaginable": 88427, "Ġscrolled": 94814, "lining": 34707, "åŁºå»º": 114394, ".pull": 82583, "Blo": 94645, "ĠVisa": 43085, "Ġntohs": 92681, "ALLOC": 41041, "ĠShuttle": 77064, "Ð¾ÑĤÐ¾ÑĢÑĭÐµ": 134598, "Ġatm": 69267, "ä¸Ģé¡¿": 110429, "çļĦå¼Ģ": 107905, "Ġinfectious": 49183, "Â½": 25981, "Ġfeat": 12341, "åįĵ": 102040, "Â¶": 54146, "UserController": 70205, "ĠÐļÐ°Ð·Ð°Ñħ": 136928, "Touchable": 68479, "ĠUNIVERSITY": 80612, "Ġrely": 17168, "ĠRELEASE": 52684, "Ġtro": 8184, "ĠCheng": 56325, "ĠRencontre": 44327, "èĮ«çĦ¶": 125827, "ĠarasÄ±nda": 136310, "Ġemlrt": 95405, "ĠReb": 51303, "ÑıÑĤÐ¸Ñı": 129079, "æľīä¸Ģç§į": 105539, "ĠGMT": 24414, "Ð»Ð¸ÑĤÑĮ": 142313, "Cx": 90452, "issy": 59796, "bet": 28451, ".words": 55536, "Ġclosing": 15304, "ĠÐ¼ÑĭÑģÐ»": 151018, "ãģįãģŁ": 135451, "ĠRevision": 26709, "åİ»å¹´": 101677, "Ð½ÐµÐ½Ð¸Ñİ": 134864, "patients": 79690, "âĬµ": 153552, "åĬłå¯Ĩ": 108781, "_FIRE": 76006, "èĢĥèĻĳåĪ°": 105212, "æĢ»åĴĮ": 124777, "åīĸ": 103685, "Ġtyped": 31830, "ĠMixed": 49846, "åıįåĲĳ": 118127, ".NewGuid": 42242, "eliac": 93808, "-generation": 42583, "âĽĶ": 154776, "ĠtÆ°á»Ľng": 147111, "ä¸įåıĺçļĦ": 121258, "ĠÐ¼Ð°ÑĪÐ¸Ð½Ð°": 137829, "ë¸Į": 150332, "ĠÐ²Ð°ÑĪÐ¸": 135390, "ĠWallace": 38648, "_dll": 93829, "-parameter": 88671, "Ġteammate": 47273, "ä½ĵæ¸©": 107941, "ĠWick": 73530, "ÐµÑĩÐµ": 131661, "quam": 85982, "-TV": 51949, "ĠimportÃ¢ncia": 149837, "Ġbruk": 80117, "Ġ\"čĊ": 31356, "ĠShanghai": 36853, "åī§çĥĪ": 110165, "_ARCH": 39829, "ÐºÑĥÑİ": 134676, "Ġsai": 71087, "ĠIR": 16234, "ĠÐ·ÐµÐ¼Ð»Ñİ": 144017, "eway": 24647, "rez": 22680, "Ġesfuer": 136208, "ĠFlower": 42442, "é«ĺç©º": 116447, "_major": 47615, "panse": 93625, "ulk": 21733, "æ¶¯": 102664, ".compareTo": 45438, "ÏĥÏĦÎ¬": 140941, "å½ĵåį³": 122319, "çłĤå²©": 126745, "Ġdeg": 5254, "Ġhundreds": 11494, ".Xaml": 44531, "KN": 17136, "Ġenqu": 76098, "ĠÑĤÐµÑĢÐ¿": 141103, "_#{": 89850, ":\");čĊ": 67126, "Ġmanual": 11371, "*m": 32421, "assemble": 68601, "åį¿": 104915, "ÅĤos": 131591, "Ġcannabinoids": 92107, "Ġcivilizations": 84764, "matching": 88305, "Ġextras": 36092, "âĹ·": 154561, "ĠglEnable": 63810, "Ġroasted": 53205, "igers": 31970, "jsc": 74928, "ĠÐ¼ÐµÑģÑĤÐ¾": 129273, "çļĦåĽĽ": 117111, "ĠOECD": 77789, "æ»´æ°´": 127046, "æľĿ": 99552, "ĠDepartment": 5887, "Ġ*)(": 23520, "_ca": 49286, "ĠDER": 46489, "ĠrespondsToSelector": 61854, "_ROT": 62226, "/?": 17737, "iflower": 76164, "MT": 8504, "Ð°Ð½Ð³": 133601, "ĠIgnore": 38762, "icus": 57847, "çķľç¦½": 119427, "ipment": 5402, "cosystem": 23224, "æļ§æĺ§": 115118, "ÙĪØ²Ùĩ": 145318, "ĠCroatian": 98230, "ĠÑĨÐ¸ÑĤ": 138543, "Ġmetall": 69141, "å¥½å¥½çļĦ": 114901, "ĠkarÅŁÄ±": 132206, "_key": 3097, "jed": 133016, "æĳ©ç¾¯": 111948, "Î¼ÎŃÎ½": 131456, "Ġimproves": 34776, "inho": 27484, "ÒĲ": 152804, "Ġbcm": 56386, "_PUBLIC": 36026, "é¡ºåºı": 105019, "_is": 6892, "_sy": 58127, "Ġ__________________ĊĊ": 78726, "cci": 56326, "Ð¸Ð¼Ð²": 74288, "Ġkazan": 140891, "={{Ċ": 18239, "ares": 5403, "Ãºi": 144513, "åĿĢ": 100147, "\".Ċ": 22895, "ĠØªØ¬": 129796, "Ð¾ÑģÑĮ": 97883, "Creates": 54501, "åĪĨæķ°çº¿": 114971, "instagram": 45987, "ĠÐ½ÐµÐ¾ÑĤ": 150367, "(App": 23168, ".ar": 16694, "ĠMonter": 64523, "-good": 71154, "undi": 55522, ".Keyboard": 78063, "ĠRemoving": 66217, "Reuse": 37881, "âĭ¼": 153622, "INES": 33446, "èĩªè±ª": 110175, ".setLocation": 57372, "éĥ½æľīèĩªå·±çļĦ": 124906, "Ð¾ÑĢÐ¾Ð¶Ð´": 149623, "ubles": 139334, "ãĤ¦ãĤ©": 146083, "tatt": 134981, "GLuint": 65276, "Ġintens": 24176, "emperature": 92938, "ĠUkrainian": 33463, "EMPLARY": 30271, "chemy": 24020, "Ġausgestattet": 151297, "ĠâĢ¦ĊĊ": 12016, "è¥¿æĸ¹": 101983, "Ġë¯¸": 134781, "lioteca": 142816, "openhagen": 44568, "Ġroughly": 17246, "Ġsupra": 66071, "Ġnecesitan": 149853, "co": 1015, "Ã©tude": 147334, "å¯¹ä»ĺ": 113836, "äºĨä¸ŃåĽ½": 108210, ".sm": 22493, "ĠÐ¾ÑĤÐºÑĢÑĭÑĤÐ¸Ñı": 149306, "Ġgrenade": 66095, "æĪĳä»¬æĺ¯": 110292, "æ£Ĵ": 102128, "è´µå¦ĥ": 120720, "Ġbenef": 4177, "ä»ĸä»¬åľ¨": 105029, "Ã©ge": 139143, "prenom": 65865, ".basicConfig": 68297, "ĠÐµÐ¶ÐµÐ´Ð½ÐµÐ²": 136517, "igenous": 25276, "Ġupstairs": 48599, "Ġclip": 12321, "ĠÑģÐ¿Ð¾ÑĢÑĤ": 129749, "kl": 10556, "çĶĺèĶĹ": 124633, "ixon": 28372, "âĢĶthat": 39808, "<|assistant|>": 154828, "ĠÙĩØ³ØªÙĨØ¯": 134251, "/object": 59077, "Ġreopen": 36568, "è½¬çľ¼": 117256, "åľ¨è·¯ä¸Ĭ": 118215, "tÃ¤": 135234, "Ġspp": 89948, "icrous": 82500, "å°±è¿Ļæł·": 104907, "ssql": 79072, "ĠPSP": 68313, "Ġcoupon": 23755, "ĠGate": 29136, "rure": 143050, "Ġidea": 4522, "Ð¡ÐĲ": 143432, "ĉfiles": 73499, "ä¸įèĤ²": 118337, "Ö": 146, "ĠÐ¿ÑĢÐ°Ð·Ð´": 130083, "åĽ¢éķ¿": 115437, "ìķ": 30278, "Ġvoi": 67160, "ĠÐ½Ð¾Ð¶": 134911, "ĠìĹ´": 148977, "Ġblends": 57447, ",)": 45743, "á»ħn": 130461, "igham": 84522, "çĶ¨è¯Ń": 122944, "(PR": 71022, "çļĦåĨħ": 113053, "_Delete": 57031, "å·´æİĮ": 123034, "ä¼ĺéĽħ": 105264, "åĮºåĿĹéĵ¾": 108061, "ĠSpielberg": 92831, "æ¨¡å¼ıçļĦ": 109137, "É³": 153849, "çıŃä¼ļ": 126854, "ĠStreamLazy": 71369, "Ġaccomplishments": 52433, "áģ¼": 153780, "kers": 26096, "ĠSus": 16274, "ðŁĺ¾": 152398, "ĠRunner": 44682, "Ð°ÑīÐµ": 131510, "Ġanatom": 74206, "ĠWilderness": 83398, "ï¹": 107118, "Ġtanker": 91617, "ă": 191, "éĺ´å½±": 110172, "Ġelders": 60252, "Ġcreditor": 96571, "optional": 12801, "æĸ°éĹ»ç½ĳ": 107305, "è¯ĬæīĢ": 114961, "avas": 145187, "alifik": 144614, "Ġgratuite": 47018, "_digits": 41197, "ĠĠĠĠĠĠĠĠĠĠĠĠĠĠĠĠĠĠĠĠĠĠĠĠĠĠĠĠĠĠĠĠĠĠĠĠĠĠĠĠĠĠĠĠĠĠĠĠĠĠ": 21459, "(\"@": 10657, "ĠmaxWidth": 39402, "åĺĺ": 114335, "Ġstrony": 137977, "Ġbáº±ng": 130173, "(Binary": 77210, "é¡¹çĽ®è´Łè´£äºº": 126381, "Ġcats": 19386, "-tools": 44387, "Ġadvertisements": 42405, "ä¸ĥå¤©": 125393, "ĠWindows": 5515, "Ġ});čĊčĊ": 28276, ".dis": 7773, "Ġcada": 18828, "Ġsmoothly": 38204, "ĠÐ·Ð°ÑģÑĤ": 132049, "Ġmodular": 43642, "Ġchampionships": 57787, "çļĦè®¤çŁ¥": 124733, "ĠPredictor": 59997, "æįĨç»ĳ": 122744, "ä¹łè¿ĳå¹³": 102227, "ĠTabs": 52268, "Ġcomparatively": 69936, "Interface": 5051, "Ġalcuni": 95549, "Ð²Ð¸Ð½": 130976, "ä½łæĿ¥": 116984, "èĹıä¹¦": 119455, "å¼Ģä¸ļ": 110501, "=\"--": 97467, "uba": 30312, "ččĊččĊ": 35122, "ĠAddr": 72029, "Deprecated": 51006, "Unity": 37116, "Ġspeedy": 65006, "ĊĉĉĉĊ": 46169, "ĠMarx": 27000, "ä¹ŁåįģåĪĨ": 119934, "|#": 78812, "_Pl": 41374, "ĠÐ¾ÑĩÐµÐ½ÑĮ": 127757, "elize": 19375, "Ġdiscrepancy": 77379, "\\\"\",Ċ": 95096, "ä½ĵåĨħ": 104712, "Ð¾Ð¹Ð´ÑĥÑĤ": 142156, "ç¯¡": 122211, "ĠZoe": 74056, "å¼Ģå±ķå·¥ä½ľ": 123314, "ĠÑģÑĥÐ±": 130812, "äººåĪ°": 124355, "Ġgetting": 3709, "èĩªåı¤ä»¥æĿ¥": 127332, "çĭĤæ¬¢": 115716, "æĶ¶çĽĬ": 101720, "Ġstanding": 11254, "æ¸¯": 99443, "è¿Ļä¹Īåģļ": 118022, "é«ĺéĽĦ": 115149, ",text": 38800, "å½ķåħ¥": 120092, "ä¿ĿåŃĺ": 103199, "ĉAT": 92166, "Ġmour": 66097, "çŁŃè·¯": 123204, "Ġrespecting": 67917, "å¼ĢåıĳäºĨ": 127342, "ÐķÐ²": 143115, "!(\"{}\",": 79236, "FAILED": 36725, "=cut": 48410, "Ġavaient": 141979, "Ġgradually": 25943, "PEC": 10938, "à¤§": 151383, "rando": 135978, "ĠPhelps": 96695, "isArray": 66624, "Ġunser": 23831, ".water": 85805, "Ġisti": 140800, "ext": 427, "åĲĳä¸ĭ": 109728, "_context": 8466, "âĢĻÃł": 89396, "Ġbelong": 9170, "ĠÃĸn": 145598, "toolbar": 37335, "æ·Ħåįļ": 114342, "ietnam": 140646, "Ġguards": 26097, "ĠEnum": 14077, "ĠÑĥÐ½Ð¸Ðº": 132136, "licted": 41110, "oralType": 95099, "rah": 32360, "ĠAppropri": 85015, "ĠElse": 18771, "æī¬å£°åĻ¨": 126134, "è´¡çĮ®": 101224, "PM": 8794, "ĠWorker": 32928, "KERNEL": 81703, "åı³è¾¹": 117073, "void": 1004, ".toolStrip": 24604, "ĠÐ¾Ð±ÑīÐµÐ¼": 136177, "ĠBrisbane": 45956, "Ġagro": 150460, ".indexOf": 9911, "Ġdarn": 73104, "Ġoccupations": 59451, "-leaning": 76743, "Ġ'@/": 29993, "ĠForever": 54242, "ãģĴ": 130264, "eventName": 85119, "Ð¸ÐºÐ¾Ð²": 128451, "ĠÑģÐ±": 130719, "ĠHá»Ļi": 140929, "ĠÑģÐµÐ·": 130403, "ĠhttpRequest": 76927, "ĠkaÅ¼": 62844, "Ġquerying": 80441, "Ġrenal": 62374, "Ġparte": 19501, "èĦ¯": 115582, "ÏĥÎ¯": 146795, "ĠÐĹÐ°Ð¼": 141728, "ApiResponse": 61059, "åį«åģ¥": 115305, "ĠØ§Ø¬ØªÙħØ§Ø¹": 139598, "à§ĩ": 58501, "ãģªãĤĬ": 144243, "Noise": 61385, "ì½Ķ": 147937, "period": 19268, "Ġautoridades": 135588, "secured": 83613, "oscope": 62212, "Ġwalmart": 69601, "...ĊĊĊĊĊĊ": 86315, "ophe": 79761, "áĥ¿": 154483, "Ġsplit": 6718, "_transition": 53236, "Ġsacrific": 30737, "lor": 9562, "æº¶åīĤ": 113575, "Ġrepetitive": 57681, "ĠéĻ¤": 117125, "çĶŁæ®ĸ": 108633, ".servlet": 10987, "âīµ": 153488, "ëĦ": 74549, "(Locale": 65280, "Ġ;)": 72567, "ĠDating": 17311, "ĠÏĢÎ¿Î»": 131057, "Ġ\"}\";Ċ": 97445, "ĠFlam": 96046, "Ġprocessors": 36400, "Ġapk": 57637, "mÃ¤": 129685, "Trail": 73520, "áĢı": 153671, "à¸¡": 26201, "ĠScreen": 13939, "çļĦæĸĩåŃĹ": 122870, ".Accessible": 91751, "Blocking": 47964, "Ġloudly": 53487, "æĬĹ": 99347, "ARGE": 29645, "Ġopen": 1787, "Ġmighty": 41392, "ĠSozial": 142841, "Results": 9796, "ĠqualitÃ©": 58621, "éķ¿æľŁä»¥æĿ¥": 113371, "Ġ}}Ċ": 8095, "Ġlawn": 35843, "Ġdá»¥": 128174, "_png": 61313, "ĠNas": 38018, "Ġutilizes": 59365, "figcaption": 78575, "similar": 63825, "âĢĻest": 21352, "Ġcooldown": 43004, "domains": 59207, "èİŀ": 105128, "çĶŁçī©è´¨": 119176, "ç¨½": 108838, "cerpt": 33863, ":Register": 64862, "Ġsteak": 48648, "ARC": 46188, "ĠSwift": 23604, "Ġsamme": 145622, "ĠSeq": 23678, "Ġpst": 43552, "ĠHMS": 95263, "ÒĬ": 152798, "Ġoppression": 46361, "El": 6582, ",line": 68251, "tesy": 18848, "Ġmedium": 11046, "ðŁįĶ": 151652, "åĮĸåĴĮ": 106755, "ss": 778, "ĠHyp": 38208, "flag": 9898, "(sheet": 61248, "ĠÐ±ÑĭÐ»": 127945, "onents": 97510, "ĠSensors": 93626, "illeurs": 131378, "éĴ±äºĨ": 127265, "ä½Ĳ": 104030, "éľĢè¦ģè¿Ľè¡Į": 120423, "à¦¹": 152662, "Ġë¹": 142548, "å¼Ģå¿ĥçļĦ": 115551, "each": 9543, "lz": 94700, "Ġmediante": 65096, "Ġholiday": 13249, "ãģ£ãģ": 137188, "Ġinstit": 7759, "å·¥ä¸ļåĴĮä¿¡æģ¯åĮĸ": 121661, "çĨŁç»ĥ": 107200, "Ġopposite": 13993, "_fore": 35386, "ĠSOAP": 62783, "75": 100899, "è±ªåįİ": 105201, "Ġgarnered": 66800, "Ġiedereen": 148703, "å¸ĤåĢ¼": 110502, "å¹¶ä¸º": 114112, "ĠAngels": 41808, "chin": 58664, "åľ¨åĴĮ": 126320, "Ġdetermination": 25170, "_fsm": 96257, "Ġshedding": 78679, "ĠÐ¿Ð¾Ð²": 94137, "æ¾": 99894, "_tools": 39508, "requires": 41141, "ĠwxString": 56235, "BK": 87576, "ĠÐ¸Ð·Ð±Ð°Ð²": 134051, "åĬ«": 104036, "ĠLeer": 92019, "Ð¸ÑĢÑĥÑĢÐ³": 137388, "ĠØŃÙĦ": 138464, "éľ¾": 113077, "ĠISA": 83595, "éļ¶å±ŀäºİ": 115331, "ÎµÎ¯ÏĤ": 142219, ")}.": 95544, "phrase": 27617, "ĠÑģÐ²Ð¾ÐµÐ¼Ñĥ": 137032, "ĠShelter": 74233, "_mob": 84371, "ioxide": 36610, "1970": 117163, "ĠqueryInterface": 94118, "Ġelast": 90326, "ĠEventEmitter": 29887, "Ġspec": 1398, "à¸¬": 153223, "[assembly": 18360, "ÑıÐ²": 127558, "ĠSales": 15817, "Ġlux": 14041, "ĠEstonia": 67865, "ĠwÃ¼n": 139120, "ĠBrunswick": 59732, "ĠRajasthan": 85626, "Ġuser": 1196, "AEA": 90069, "odÃ³w": 142658, "çĩ": 99574, "enames": 32797, "ereum": 23856, "veis": 43449, "ä½Ļäºº": 106254, "ĠĠĠĠĠĠĠĠĠĠĠĠĠĠĠĠĠĠĠĠĠĠĠĠĠĠĠĠĠĠĠĠĠĠĠĠĠĠĠĠĠĠĠĠĠĠĠĠĠĠĠĠĠĠĠĠĠĠĠĠĠĠĠĠĠĠĠĠĠĠĠĠĠĠĠ": 14632, "_EVENTS": 60926, "ĠÐ²Ð·ÑıÑĤ": 144543, "ĠAllah": 27280, "ÑģÐ¼": 135654, "å¿ĹæĦ¿": 100509, "isted": 13228, "Explorer": 70384, "ĠMeasure": 33939, "Returned": 84108, ".solution": 91214, "ĠValueType": 55172, "éĥ½åĸľæ¬¢": 120534, "_greater": 97166, "ãĥĲãĥ¼": 133698, "Ġinexpensive": 42907, "Ġmilit": 5327, "Ġjasmine": 65329, "æ¶Īæģ¯ç§°": 123242, "Ġblown": 35298, ".ADD": 54553, "Ġlawsuit": 19239, "çĥ¦èºģ": 116140, "ãĥ¼ãĥ©": 137580, "mounted": 80852, "icking": 16258, "ĠØ´Ú©": 145573, "Ġrotate": 16900, "çĬ¯äºĨ": 117080, "Ġseaborn": 93963, ".onSubmit": 87007, "Ġpay": 2291, "ä»£è¡¨äºĨ": 118069, "itrust": 84175, "ÐĹÐĺ": 150151, "ä¸įèĥ½åĨį": 115303, "ingers": 14096, "ĠBack": 6841, "UTES": 53427, "ĉDestroy": 80572, "converted": 75597, "Ġresorts": 60024, "lict": 21194, "èĳ±": 100878, "-&": 67221, "é«ĺæł¡æ¯ķä¸ļçĶŁ": 123965, "Ġwhim": 72900, ".send": 5219, "ĠCookies": 25913, "Ġled": 6069, "ĠØ§ÛĮØ¬Ø§Ø¯": 138625, "åľ¨å»º": 116666, "atu": 35134, "ĠÐ¿ÐµÑĢÐ²": 76192, "ĠFior": 98163, "Ġ)ĊĊĊ": 25492, ".character": 46888, "ØĶ": 152435, ".Standard": 53258, "äºĨä¸Ģåı£æ°Ķ": 124866, ".two": 92299, "ðŁİ®": 151742, "gestellt": 132035, ">K": 52946, "è½¬æĬĺ": 113689, "Enough": 94996, "Ġabus": 144542, "çŃĿ": 111633, "èĲ¤": 119906, ".Restr": 77225, "_inds": 56253, "ĠSwing": 51745, "æķĻèģĮå·¥": 112795, "Ġsleeves": 42133, "Ġdpi": 50409, "ĠMaid": 46795, "pto": 57595, "æĿ¥çĶµ": 116562, "ĠHelloWorld": 89327, "lifting": 51562, "ĠÑĢÐ°Ð½ÑĮ": 134143, "Äĥr": 61640, "_prim": 86694, "ĉdate": 43832, "Ġweek": 2003, "ĠSOLD": 82462, "Ġresend": 93099, "ç§įæ¤įä¸ļ": 118496, "ĠEx": 1374, ".review": 68621, "Evidence": 91823, "Ġto": 311, "ĠUseful": 50180, ".getBean": 59905, "alue": 540, "ĠforCell": 71966, "Ġexport": 7485, "Ġinterna": 128361, "lients": 7041, "ebas": 137968, "specs": 93734, "ĠMessage": 4856, ".getDouble": 57169, "ÐŁÐ¾ÑģÐ»ÐµÐ´": 144069, "ĠWalters": 89787, "Ġvitesse": 145949, "Ð°Ð¹Ð´Ð¶": 143229, "Bulk": 87463, "Ġnodig": 137010, "å°ĳè®¸": 105251, "ãģĦ": 16570, "+c": 48824, "(bind": 71000, "Selection": 11172, "âī®": 153481, "ĠHACK": 94325, "ĠFishing": 51965, "ĠKang": 53914, "çļĩåŃĲ": 124793, "skirts": 66487, "Ġwherein": 41086, "ĠfieldValue": 94286, "ãģĭãĤı": 146485, "urgy": 61097, "Ġdung": 84831, "Ġmarshaller": 98070, ".ForEach": 67251, ".Serializer": 81534, "ÑİÐ±": 129800, "_imag": 87877, "èĩªçĦ¶": 99369, "SeekBar": 82701, "Ġthoáº¡i": 136597, "175": 115381, "schw": 146266, "purchase": 33714, "getResponse": 58930, "ä¾¿æĲº": 119819, "ÑģÐºÑĥ": 134775, "ÎºÎ¬": 136736, "âĢĻil": 43645, "ãģĵãģ¨ãģ§": 137048, "leys": 47385, "ĠpÃ¡g": 130563, "ç¼©åĩı": 122990, "ĠDOT": 48023, "ĠcolumnName": 65267, "Ð¼Ð¾ÑĤÑĢÐµÐ½": 136121, "ĠPond": 70333, "EINVAL": 35017, "Ġgeneral": 4586, "ĠÐ¾ÑģÑĤÐ°Ð½Ð¾Ð²": 132760, "Ġpairing": 47418, "ellas": 73912, "Ġå¼Ģ": 103065, "ReadStream": 98178, "Subsystem": 80463, "ĠcaractÃ©r": 141275, ".Navigator": 84926, "ä½ľæĪĺ": 104230, "(end": 15064, "Ġmorte": 137494, "RIC": 35797, "ĠÏĮÎ¼ÏīÏĤ": 144498, ".cur": 24733, "ä¼ª": 102795, "åĬ©": 98869, "ĠMarathon": 49851, "ĠÐ¿Ð¾Ð»ÑĮÐ·Ð¾Ð²Ð°ÑĤ": 45027, "ĠLuego": 151314, "ĠÐ½ÐµÐ¾Ð±ÑħÐ¾Ð´Ð¸Ð¼Ð¾": 128646, "Ġdisrespect": 55830, "ĠÃ©vo": 151300, "ĠGUI": 16421, "ĠgetData": 27524, "tigen": 128396, "è§Ħæ¨¡ä»¥ä¸Ĭ": 126819, "Ð°Ð½Ð´ÐµÐ¼": 150478, "Ġconhecer": 148874, "Ð¶Ñĥ": 130581, "çĽ¸å¯¹äºİ": 107852, "ĠÙħØŃØµÙĪÙĦ": 136948, "_PERMISSION": 52440, "ðŁİ£": 151731, "blog": 11653, "ĠÐ²Ñģ": 34444, "bo": 749, "áº½": 127958, "ĠÑıÐºÑīÐ¾": 145629, "(machine": 79566, "åŃĹç¬¦ä¸²": 121478, "çłĶç©¶åĴĮ": 110255, "acco": 19463, "ĠVillage": 24001, "createdAt": 42521, "äº¬ä¸ľ": 104964, "åĽ¾æĸĩ": 107842, "ĠSwal": 58666, "_USAGE": 56903, "å¸¸è§ģçļĦ": 104250, "_particle": 69679, "Ġflower": 22294, "Ġchai": 43827, ".DataContext": 90434, "æŀĦå»º": 101442, "culus": 41116, "åºĬåŀ«": 126426, "))];Ċ": 81285, "ÐŀÐ´Ð½Ð°ÐºÐ¾": 139082, "ĠÐºÐ°Ð»": 132163, "ĠÐ¾Ð±ÑĢÐ°Ð±Ð¾ÑĤ": 131670, "Ġlivest": 41576, "ĠWit": 71310, "Ġoffence": 34087, "å¤§çº¢": 125633, "Ġbuilding": 4752, "Ġraspberry": 92915, "ĠEventArgs": 8123, "Ġappears": 7951, "ĠÐ¿ÑĢÐµÐ´Ð¼ÐµÑĤÐ¾Ð²": 150191, "å®ļçļĦ": 100966, "ĠWig": 96341, "ðŁĴĳ": 151969, "å¸¦æĿ¥": 100780, "å¿ĻçĿĢ": 115693, "<R": 23306, "Ġdesc": 6560, "çļĦéģĵçĲĨ": 124322, "ĠdouÄĥ": 146456, "çĶ¨çļĦ": 100791, "meteor": 96949, "Ġoffender": 46366, ")$_": 85602, "ĠAMA": 51449, "arbeitet": 136754, "NAV": 90789, "-lived": 61420, "quipe": 60150, "Ġpunches": 60325, "ĠÐ¿ÑĢÐ¸ÑģÐ¿Ð¾ÑģÐ¾Ð±": 150731, "åĪĨéĶĢ": 122128, "æľĢæĸ°çļĦ": 109041, "æĬĬèĩªå·±": 105090, "ĠÐ½Ð°Ð´Ðµ": 129777, "ĠConst": 24448, ".Str": 27229, "çĲ¦": 107893, "Ġsimplement": 69733, "nat": 33137, "road": 8545, "ĠÑģÐ°Ð¼Ð¾Ðµ": 132592, "è´µéĩĳå±ŀ": 124796, "Ġæ¯Ķå¦Ĥ": 112267, "EntryPoint": 96597, "=b": 22031, "\">',Ċ": 71271, "Checks": 49502, "æĬĬ": 98657, "ĠForCanBeConvertedToForeach": 78633, "ĠshowMessage": 80984, "NIEnv": 34849, "Ġsá»£": 149082, "Ñĺ": 152748, "Crear": 85974, "career": 93740, "_OPTIONS": 36137, "ieh": 139503, "1100": 119202, "ĠÐ±Ð»ÑİÐ´": 138773, "ĠÐ¾Ð´Ð½Ð¾Ð²ÑĢÐµÐ¼ÐµÐ½Ð½Ð¾": 136581, "çĥŃ": 98794, "ĠTol": 58100, "iá»ĩp": 136945, "taÃ§Ã£o": 136990, "packageName": 90304, "Prod": 41048, "(poly": 70225, "Ð»ÐµÐ½Ð½ÑĭÑħ": 131552, "Wat": 75896, "Ġtert": 96301, "ĠSupern": 95143, "åĮĹåĮº": 115351, ".Apply": 35869, "Ġsqueeze": 36377, "Ġlucha": 140668, "è½¦åŃĲ": 111038, "'ils": 83423, ";?>\"": 52388, "ä½³ç»©": 124346, "Ġmuita": 142358, "\\\":{\\\"": 91950, "ĠCollection": 11096, "Ġmarca": 45719, "Ġcharge": 6757, "Ġdelicious": 17896, "ä¸Ģå®ļè¦ģæ³¨æĦı": 119201, "Animations": 40718, "hyper": 67696, "ĉINNER": 95114, "ĠCharlie": 24851, "asily": 37073, "ÑĭÑĤÐ°": 131869, "_negative": 53507, "æ´»è·ĥ": 104520, "èĩªä¸»åŃ¦ä¹ł": 118776, "Ġesas": 134737, "Ġvanuit": 149843, "æĪĳæł¡": 106442, "Ġihm": 58041, "ĠStops": 88237, "Ġrecreate": 52427, "Ġmensagem": 58410, "ÌĦ": 151460, "åīĬå¼±": 113966, "å¸¦åĽŀ": 121512, "ĠÐµÑīÑĳ": 130327, "Ġå·": 82314, "Ġvieux": 90756, "Ġâĳ¢": 117339, "Ġdiluted": 78963, ".dense": 94659, "æ¼Ķç»İ": 106871, "ĠEmerald": 62648, "ĠbyÅĤa": 137375, "ĠLOL": 54962, ".gradient": 86837, "idis": 83547, "Ġæ³": 58646, "çļĦè¯´æ³ķ": 110257, "ÑĦÐµÑĤ": 139766, "Ð¸ÐºÐ°": 73603, "ĠÑĦÐ¸Ð½Ð°Ð½ÑģÐ¸ÑĢÐ¾Ð²": 146846, "_RECEIVED": 98303, "Lights": 73901, ".EqualTo": 55686, "_MATCH": 40597, "-serif": 27474, "çİ°ä»£": 99701, "æķ¦çħĮ": 114042, "Íł": 151552, "quelle": 86443, "ĠSpot": 23234, "ĠuseSelector": 32246, "jÃ¤hrigen": 146216, "ĠåºĶçĶ¨": 109294, "DataGridViewTextBoxColumn": 64456, "Ġroaring": 91977, "ibrated": 60143, ".fields": 12913, "ĠFreddie": 66773, "Ãºmeros": 63461, "åıĳè¡¨äºİ": 110138, "coordinates": 34567, "ons": 2382, "Ġåħ¶æ¬¡": 113007, "elter": 17846, "ĠBackground": 24724, "èĩªåį«": 124335, "ĠEstate": 24369, "Ò¥": 152825, "åĴĮä»ĸçļĦ": 112650, "èĲ¦": 125469, "(resources": 52261, "ĠPARAMETERS": 67584, ".tie": 32673, "ĠGetType": 66372, ".Extension": 59301, "æĢĿç»´èĥ½åĬĽ": 121052, "DefaultCellStyle": 84857, "gomery": 38026, "_attention": 75222, "liche": 19966, ".LINE": 80691, "ky": 7891, "ĠEscorts": 49336, "Ġappare": 95355, "panied": 22010, "æł¹æľ¬æ²¡æľī": 115060, "func": 2830, "lexer": 38607, "áŀ©": 154206, "aturity": 37658, "Ð°Ð·Ð²Ð°Ð½Ð¸Ðµ": 67643, "å¢©": 109648, "Ð¾Ð²Ð¾": 133745, "ĉĠĠĠĠĠĠĠĠĠ": 31537, "èģĶæīĭ": 113048, "column": 6229, "_CPU": 29627, "Ġ..": 5241, "GIT": 89810, "expr": 9409, "/Ċ": 5894, "ĠJButton": 27028, "Ġguerr": 74577, "ÑĤÐ¾ÑĢÐ°": 128281, "ĠWorth": 35964, ".Toolkit": 52196, "_busy": 75355, "åĲĳåĮĹ": 123131, "Ġkhu": 130936, "Ġappena": 148120, "pins": 73973, "Ġlamp": 27867, "\":Ċ": 4660, "é«ĺå±Ĥ": 106543, "äººäºĨ": 113106, "Ġacronym": 73931, "Ġjederzeit": 143683, "Rs": 42085, "ĠMSI": 66906, "Ġded": 7681, "Ġmillenn": 40376, "åį³æĺ¯": 110160, "-needed": 68275, "æ²Ĳ": 107403, "HAM": 72922, "êµ": 87230, "_graph": 14728, "à¥¸": 151450, ".Angle": 97182, "Ġä¹Ł": 105370, "ĠÑĢÐµÑģÐ¿": 133359, "Ġwrought": 77974, "<Q": 32234, "pellier": 90886, "áĥĨ": 154426, "éĹ·": 103570, "ĠPruitt": 77183, "åŁĭæĢ¨": 122493, "ussa": 135419, "Lastly": 79836, "Ġnoble": 34212, "'=>['": 88157, "Ġsofter": 62681, "Ġlongitud": 48300, "illÃ¤": 133704, "åģĩå®ļ": 117715, "éĢĹ": 107699, "LOYEE": 72682, "ĠÐ»ÐµÐ²": 142341, "Ġcruc": 14777, "ditor": 68232, "Ġtrue": 830, "å¹³å¹³": 115033, "WAYS": 36356, "ĠÃĺ": 88208, "Enumer": 5882, "è´Łè´£äºº": 101566, "æľĽçĿĢ": 108227, "*b": 33119, "\"bytes": 70062, "igin": 9140, "(tk": 84263, "å¸®åĬ©": 99751, "rough": 1432, "-chat": 60113, "Ġ'/')Ċ": 92294, ":mm": 20093, "ĠTit": 23948, "Ø±ÛĮ": 128100, "pira": 129413, "ĉMD": 93800, "ÑĢÐ¸Ð¼ÐµÑĢ": 128531, "ĠÐĳÐ¾Ð³": 131820, "ì£¼ìĦ¸ìļĶ": 90901, "ĠPregn": 59233, "lers": 9251, "æĶ¾å¿ĥ": 104268, "èİ·å¾ĹæĦŁ": 122568, "åħ¨åĮº": 106514, "esty": 40018, "ĠåĨĻ": 122710, "exao": 39324, "onnerstag": 143412, "Ġoutbound": 73221, "ĠTrout": 86812, "Ð¾ÑĩÐºÑĥ": 135926, "ĠSv": 63152, "ðŁĶĮ": 152092, "Ġ'../../../": 18522, "ĠÐ²Ð½Ð¸Ð¼Ð°ÑĤÐµÐ»ÑĮÐ½Ð¾": 148957, "çŃīæİªæĸ½": 123414, "ĠÐ¡Ð¾Ð²ÐµÑĤ": 136168, "æĢ»è¦ģ": 124515, "ĠÐ¸Ð½ÑĤÐµÑĢÐµÑģÐ¾Ð²": 144432, "æ²¹æ°Ķ": 113570, "Ġnombre": 12730, "incy": 74987, "Ġnightclub": 69212, "ĠinformaÃ§Ãµes": 63607, "åĴĮç¾İåĽ½": 118726, ".TableName": 86063, "$objPHPExcel": 97630, ".Single": 23056, "çļ®å¸¦": 125354, "Ġnurs": 16977, "éĸĭ": 111234, "ĠwiÄĻcej": 79794, "ĠStato": 146154, "Ġkam": 33499, "éĢļè²©": 141869, "ĠÐ¼Ð¾ÑĢÐ°Ð»ÑĮ": 150360, "Ð½ÐµÑĤÐµ": 132962, "ĠnhÃ¬n": 133076, "(result": 4456, "ĠForecast": 55301, "Bezier": 94253, "omap": 74223, "ĉweb": 96434, "ĠButton": 6601, "=============Ċ": 47322, "ibu": 56599, "Ġmistr": 91140, "è´©åįĸ": 121326, "_pal": 72742, "Ġharmful": 27662, "drivers": 61689, ">Name": 44409, "aÃ§Ãµes": 33304, "âĺĽ": 154595, "~~~~": 10308, "Ġylim": 83222, "Untitled": 98165, "ĠParse": 14765, "ÏģÎ¿Ïį": 133940, "elligen": 140232, "ÐµÐ½Ð½Ð¾": 127993, "å¦Ĥä»Ĭ": 100911, "Ð¾Ð¶Ð´ÐµÐ½Ð¸Ñı": 129997, "Ġparallel": 15267, "çĥ§ä¼¤": 127173, "å®¶åĴĮ": 123105, "ODY": 21003, "ÙĥØ±": 129566, "ĠPodcast": 29654, "ÐµÐ±": 49275, "Ø³Ø©": 134672, "Ġoutlines": 49311, "ĠEtats": 146295, "Ð½Ð¾Ð³": 130262, "ä»ĸå°±": 105513, "Ã©ral": 146925, "_activity": 29909, "ÆĴ": 153019, "Ġmatt": 26354, "floor": 30331, "æł·æľ¬": 104751, "äºĮçļĦ": 113173, "antas": 76204, "imore": 21332, "ĠMoral": 87774, "methodPointerType": 94751, "ÐµÑģÐº": 135417, ";x": 54257, "Ġoid": 48460, "Ġodds": 20739, "uzzi": 77843, "Ġprotes": 140452, "ĠÐ´Ð½ÐµÐ²": 144990, "Ð½ÐµÑĨ": 146513, "éªĹ": 101243, "Ġleuk": 55901, "ĠCreat": 17642, "Ġ`<": 30466, "'):": 34765, "Â®,": 65874, "\"\".": 68843, "Ġvarying": 28662, "Ġavoir": 38621, "anÃ§a": 90240, "ä¸ĢçļĦ": 122503, "belongs": 80241, "à¸į": 153209, "ĠÙħØ´Ø±ÙĪØ¹": 151003, "Ġgraf": 57902, "_AURA": 76310, "ĉfun": 89382, "ĠROI": 50319, "ĠÐļÑĥÐ¿Ð¸ÑĤÑĮ": 134606, "ada": 2584, "ivos": 24155, "ounces": 29828, ".Hide": 44171, "ĠContractors": 96968, "ĠHUD": 48292, "ĠÐŁÐ¾ÑįÑĤÐ¾Ð¼Ñĥ": 130408, "Ġmatching": 12573, "cjÄĻ": 135043, "usalem": 24191, "ĠMatthews": 50351, "ĠGig": 43879, ".dispatch": 19894, "ĉmutex": 42378, "ĠGenerate": 19775, "Ġcolorful": 33704, "ĠThrough": 16885, "åľ¨æĪĳåĽ½": 108843, "ĠOnInit": 10967, "mittelt": 148684, "Ġbite": 22660, "ovi": 44822, "à¤ª": 85450, "è¿Ľåİ»": 103930, "Ġsocial": 3590, "1300": 116067, "æĢ»åħ±": 115216, "åĲĦèĩªçļĦ": 112862, "-global": 72750, "âĭĺ": 153587, "ĠWen": 60792, "'eau": 91968, "Enumerable": 9569, "æĭ¿åĪ°": 104519, "åŁºåĿĳ": 124146, "à¹ª": 153267, "Ġfinally": 5499, "Ġatof": 64482, "antages": 37590, "ldb": 56542, "sterol": 32038, "ĠæĿ¥": 108987, "Ġstructs": 62404, "ĠÐ´ÐµÑıÑĤÐµÐ»ÑĮÐ½Ð¾ÑģÑĤÑĮ": 134638, "Ð°ÑīÐ¸ÑħÑģÑı": 145482, "Ġjab": 59646, "Ġpanicked": 92230, "åĿĩå·²": 127123, "Ġjp": 43322, "Ġchiropr": 75594, ".play": 12965, "werk": 58457, "psc": 81313, "é¸¡æ±¤": 112523, "wyÅ¼": 141191, "Ġhilft": 141957, "Ġcdecl": 86452, "ĠRouting": 65228, "åł±": 122269, "ascus": 52297, "çļĦåĩĨå¤ĩ": 125344, "ĠBelg": 22416, "Ġvoulez": 144538, "ĠÐ¾ÑĤÑĨÐ°": 148267, "éĥ½çŁ¥éģĵ": 104743, "ĠFo": 31524, "rors": 31553, "åĲĳè¥¿": 122427, "ĠIk": 41100, "è¿«": 101021, "Æ¨": 153040, "\"\"": 3014, "ĠgetLocation": 82702, "ISE": 9130, "ÑĤÑĮÑģÑı": 128089, ".fixture": 50204, "Ġ60": 109040, "fb": 10793, "Ġtrabajo": 38014, "å·«": 106963, "unes": 8530, "vides": 66665, "Ġmultinational": 67433, "Text": 1178, "à³": 55514, "MarshalAs": 86011, "çļĦä¸Ģå¹ķ": 126476, "isque": 94738, "-bal": 82436, "accord": 144855, "Ġtrabajar": 93768, "ampo": 53373, "ÏĦÎ·ÏĤ": 136721, "dÅĳ": 150087, ".Inter": 15393, "ĠÐ¾Ð±ÑĬ": 47049, "ĠÐ´Ð¾Ð»Ð»Ð°ÑĢÐ¾Ð²": 133839, "ĠDiscrim": 76682, "ĠHod": 50600, "copyright": 15480, "ĠEW": 62550, "å·³": 117997, "Ġexercises": 22871, "erge": 10075, "áº¿n": 69724, "Ġattached": 12386, "Ġcuar": 135731, "acious": 19393, "Anna": 56374, ".GetProperty": 95324, ")value": 45972, "ðŁĹ": 151336, "PLETED": 48445, "=$": 3186, "ç¤¾ä¼ļä¸»ä¹īçİ°ä»£åĮĸ": 116748, "åľ¨ä¸įæĸŃ": 126778, "Template": 7275, "lox": 55354, "Ġmilitants": 38142, "Ġperforming": 16366, "ĠExists": 71871, "ĠParticipants": 51438, "ĠSaudis": 87107, "ĠInfluence": 74351, "Ġä¹Łæĺ¯": 111991, "Always": 36901, "Î¯Î½": 127944, "Ġcartesian": 93587, "ĠÐ¶Ð¸Ð»ÑĮ": 133994, "ãĥĵ": 89635, "Ġtextbox": 73425, "Ð»Ð¸ÑĨ": 65640, "Ã¼nsch": 148327, "'},Ċ": 11682, "ĠSubmit": 29063, ".sw": 3064, "æĺİçıł": 111607, "Ġinaccur": 40697, "Ġrencontrer": 89184, "Ġuv": 29550, "(Module": 74701, "Ġeffektiv": 148153, "*******/Ċ": 35352, "*/,Ċ": 28420, "ĠtrÃ¡ch": 144555, "Ġtogether": 3786, "éĹ²ç½®": 115901, "ÐĲÐł": 142302, "/S": 11369, "åĬ¨äºº": 116721, "Ġpremature": 40897, "Ø¨Ø¯": 129464, "naj": 149929, "Ġxnxx": 93261, "\\a": 80388, "ĠÐ°ÑĢÑħ": 131052, "ðŁĸ¼": 152268, "Ġvocational": 87654, "Grab": 55546, "ĠKunde": 146095, "ðŁĲĤ": 151826, "fillable": 41152, "ĠAttorney": 18382, "ĠHeights": 39189, "date": 1028, "ÙĨØ¯Ú¯ÛĮ": 138113, "ocoa": 33142, "Ġdome": 56951, "ĠÐ¸Ð½ÑģÑĤÑĢÑĥÐº": 132697, "ĠRot": 27271, "å¹³æĸ¹åħ¬éĩĮ": 107740, "Ġsigni": 128963, "dp": 9791, "CCC": 53515, "Ġíķł": 94205, "ĠBitConverter": 72322, "ðŁİĬ": 151706, "sed": 31193, "ĠØ¨ÛĮØ´ØªØ±": 137191, "Ġwalnut": 91850, "<Field": 81795, "combined": 65824, "Ġvem": 96250, "æĢ¥äºİ": 118704, "å¯Ĵ": 100242, "çļĦäººæł¼": 115682, "ĠProt": 11702, "+</": 78627, "ĠÐ´Ð¾ÑģÑĤÐ¸": 129609, "éĺµèĲ¥": 117626, "_router": 55214, "Ġdedica": 138655, "Ġsunset": 42739, "ĠVar": 8734, "ĠÐĵÐ´Ðµ": 139994, "Bus": 15061, "åĩºå¤´": 124059, "amine": 19953, "äºĮç»´çłģ": 109583, "(VALUE": 98054, "ĠSimpl": 60811, "style": 3528, "Countries": 71182, "Ġbackstory": 91497, "ĠÐľÐ¸Ðº": 146726, ".getB": 72033, "=message": 86408, "Ġdifficulty": 16811, "æĸ°æĿĳ": 116934, "Ð¾Ð±Ñī": 53795, "Spread": 46200, "é¦ĸä»ĺ": 120939, "Ġnucle": 30267, "ataires": 91674, "ĠMaterials": 30784, "å¼ķèµ·": 100388, "ĠXD": 70650, "å¹³åĩ¡çļĦ": 124176, "Ġdescri": 5018, "ĠÑĤÑı": 137209, "Ġsens": 6097, "();ĊĊ": 1428, "digt": 132363, "ĠdafÃ¼r": 67458, "ĠÐ¿ÑĢÑıÐ¼Ð¾": 132218, "expÃ©rience": 143819, ":r": 66868, "Ġacteurs": 145234, "å®£": 99290, "áĢ¬": 153700, "_ES": 30158, "ĠorderBy": 39479, "Ð»Ð¾ÑĢ": 142626, ".team": 27868, "\\\">\\": 38650, "ĠBay": 9151, "èĭ¦": 99512, "Ġtimeframe": 69431, "ĠApproximately": 78174, "]čĊ": 6114, "ysize": 68847, "èįĢ": 119081, "Ð»Ð¸ÑĤ": 133705, "åŃ¦ä¹łäºĨ": 115071, "å¹´åĪ°": 115165, "Ð½Ð¸ÐºÐ¸": 127861, "eut": 59635, "ÙĨØ¨": 133421, "delivery": 32244, "Ġcontingency": 81771, "åľ¨æŁĲ": 120323, "-stage": 49834, "ç®¡çĲĨåĳĺ": 117075, "enerate": 13212, "ĠÐ½Ð°ÑģÐºÐ¾Ð»ÑĮÐºÐ¾": 139652, "Ġcatal": 33194, "udios": 88051, "'>\"+": 85881, "publisher": 50854, "Ġstroke": 12648, "reater": 28263, "ÐµÐ½Ð°": 49988, "æµģä¼ł": 107036, "ĠÑĪÐºÐ°": 140181, "æĪĳå¿ĥéĩĮ": 115900, "ĠCURRENT": 42862, "ĠAdministrator": 28493, "ÑĤÐ¾Ð¼": 92979, "Ġmuch": 1753, "ansk": 40549, "andon": 11032, ".linkedin": 63043, "è¿Ļæł·ä¸Ģä¸ª": 106599, "laws": 67045, "Ġfundraiser": 58255, "ĠprvnÃŃ": 142092, "Ð°ÐµÐ¼ÑĭÐµ": 140783, "AME": 2729, "Ġprotobuf": 69116, "Ġmemoria": 70785, "ĠSupplement": 42149, "ENDIF": 67323, ".addItem": 36689, "Ġlovers": 31974, "Ġgrinned": 86555, "crm": 61305, "Jane": 62062, "ç»ıéĶĢ": 107303, "Ġmeas": 6893, "__)ĊĊĊ": 66472, "è¾©è¯ģ": 111010, "Ġarchivos": 86670, "æīĭä¸ŃçļĦ": 113108, "ä¹Łå°Ĩ": 105173, ".desktop": 79779, "ĠmÃ¸": 55470, "ðŁį£": 151667, "Anal": 61551, "èĭ¦çĵľ": 121923, "_annotations": 78264, ".rd": 96392, "_TRAIN": 80824, "akte": 28712, "Ġeverywhere": 16834, "Ġguitars": 59082, "èĩ³å°Ĭ": 123132, "é£İéĻ©ç®¡çĲĨ": 119019, "io": 815, "ĠInstitution": 42619, "ĠHague": 84229, "ðŁĹ¢": 152306, "verified": 20990, "ä¸ºèĩªå·±çļĦ": 115476, "ĠUn": 1230, ".transition": 42548, "æĭ®": 127254, "Ġreceiver": 13955, "ĠFalls": 29530, "=dict": 39382, "ĠÏĢÎ»Î±": 149539, "_re": 1288, "æĸ°éĻĪä»£è°¢": 120614, "Äĸ": 152927, "åĩłåĪĨ": 113039, "åĴĮå¥¹": 109409, "orestation": 95982, "è°ĥæŁ¥æĺ¾ç¤º": 126387, "oure": 78547, "Ø§ÙĦ": 31251, "ĠgetContentPane": 53219, "\"Yes": 57347, "RX": 45542, "/net": 37866, "fout": 95994, "Ġarty": 139162, "ÙĤÛĮ": 130765, "ĠBeckham": 79361, "ĠÐ²Ð¾ÑģÐ¿Ð¾Ð»ÑĮÐ·Ð¾Ð²": 136382, ".executor": 86482, "preter": 28536, "Ġelektron": 135186, "æ·±è¿ľ": 112721, "åĿ¯": 110283, "ÏĦÎ±Î¹": 128145, "ä½ľåĵģå±ķ": 123415, "Ġschemes": 30733, "Ġparticipant": 24804, "Ġè¿ĻäºĽ": 107895, "///ĊĊ": 46854, ".bulk": 87859, ".be": 8638, "Ġadequate": 25453, "Royal": 73198, "ĠÐ¿Ð¾Ð·Ð²Ð¾Ð»ÑıÐµÑĤ": 129969, "Ã¡nica": 145346, "ificial": 16473, "ÐµÑĢÐµÐ½": 141157, "Ġaten": 129370, "EventListener": 7765, "äººä¸ºæľ¬": 112147, "ĠÑĢÐ°Ð·Ð²Ð¸ÑĤÐ¸Ñı": 129904, "theid": 67858, "houd": 139231, "çĥŃçĥĪçļĦ": 123494, "ĠFiles": 17356, "Apache": 76785, "iculo": 32503, "Ð½ÐµÐ½Ð¸Ðµ": 129817, "Ġviews": 6194, "Ġtracker": 28232, "Ġdefines": 18620, "Optimizer": 79984, "Ġrefusal": 42906, "Ġknocks": 83973, "IW": 80635, "Ġfato": 143758, "ĠPORT": 19040, "Ġcatcher": 67306, "ĠØ¢ÙħÙĪØ²Ø´": 137263, "PERTY": 15904, "ĉpanel": 44688, "=\"'+": 35789, "ĠSoc": 26487, ".Term": 80017, ")ĊĊ": 692, "ĠRemote": 20694, "ĠPerception": 85142, "hex": 17287, "meaning": 56383, "Boom": 93443, "igua": 89995, "ÏģÎ¹": 127703, "());//": 70109, "æĻ¦": 116939, "exampleModal": 57990, "Ġdrone": 26627, "-</": 85315, "bus": 10333, "Ġswo": 32967, ".hw": 87478, "Ġthreat": 5899, "ĠÐ²Ð»Ð¸ÑıÐµÑĤ": 143222, "åĴĮç»ıæµİ": 114266, "Ġtransgender": 27119, "èĢĮ": 98396, "Ġopponent": 14694, "ellement": 129586, "-unit": 60152, "åįĹæµ·": 107459, "ç¬¬äºĮ": 99353, "Ġãĥĩ": 149064, "ç®ĢåİĨ": 107885, "Ġdirectamente": 139169, "ä¸įçĲĨè§£": 124284, "Ï±": 153363, ".selectAll": 50432, "Doug": 90809, "å¿ĥä¸Ńæľī": 123394, ".Butter": 96554, "ĠNone": 2240, "redits": 29391, ".Enable": 32143, "orsz": 138968, "posites": 79494, "ĠÐŁÑĢÐ°Ð²": 130427, "ke": 440, "ëĤ´": 94420, "Element": 1691, "avel": 3878, "ksi": 30934, "åĪ«åħĭ": 118578, "Endpoints": 80132, "Ġglitch": 60656, "Ġrose": 15996, "');?>": 48511, "Ġerb": 67156, "Ġsupervisor": 37125, "Ġinteressant": 145744, "_SWAP": 76708, "ĠCroat": 43828, "1080": 121356, "Ġterminal": 15010, "å°Ħ": 99570, "èĬ¬åħ°": 117900, "ĠDesde": 97115, "Ø±Ùĥ": 128333, "TEXT": 12702, "Ġgeb": 29060, "çĪ¶æ¯į": 100140, "Ġkind": 3093, "_Syntax": 48125, "Ġniez": 133203, "baugh": 61207, "ĠÐ´Ð²Ð¾Ð¹": 142471, "Times": 18855, "ĠÐ¾ÑģÑĤÐ°ÑĤ": 141571, "Ġdeflect": 82253, "çĿĢçľ¼": 110805, "-modules": 60651, "æīĵçĶµè¯Ŀ": 104973, "è¤ļ": 124654, "Ġworden": 30062, "(env": 16959, "çİ°åľ¨æĪĳ": 126304, ".mockito": 29519, ".mode": 22920, "_zeros": 83069, "ĠNXT": 89653, "Ġsunday": 91587, "ä»ĸä¼ļ": 107995, "ĠgetContent": 62738, "çļĦéĩįè¦ģåİŁåĽł": 127247, "tricitÃ©": 147613, "ĠÑĦÑĥÑĤÐ±Ð¾Ð»ÑĮ": 149810, "inion": 36116, "ĠICommand": 49647, "Ġfallback": 32619, "_SELECTED": 58929, "Ġparadigm": 47938, "çĭ¬ä¸ĢæĹł": 115462, "Ġaxe": 50134, "Ġfry": 52200, "Ġtiming": 18375, "tc": 10408, "printStats": 81584, "ðŁĳ·": 151943, "Ġsosten": 132534, "Ġwalked": 14847, "Ð·Ð´Ð¾ÑĢÐ¾Ð²": 143776, ".BorderFactory": 85277, "ĠbÃºsqueda": 97665, "ĠÐ²Ð¾ÑģÐ¿": 128585, "male": 36291, "filled": 27419, "apps": 27543, "Ġgangbang": 40529, "çºłç»ĵ": 108765, "ements": 3723, "èĥ¸èħĶ": 126542, "Expr": 16027, "æ²¡éĴ±": 114680, "ĠgetUsername": 84709, "Ġuniq": 53790, "ĠÐºÐ°Ð½Ð´Ð¸Ð´Ð°ÑĤ": 148425, "oghi": 150659, "igung": 42359, "ĠSynd": 40988, "swick": 55694, "å½©ç¤¼": 118030, "á»±a": 131777, "-air": 37340, ",:]": 75165, "ĉconstexpr": 88598, ".Photo": 71546, "//--------------------------------": 47954, ".crt": 93081, "Conf": 15566, "asuring": 68175, "isNaN": 43706, "Ã©vrier": 134279, "âĨ": 25847, "()'": 78618, "ĠOp": 10667, "ĠIndies": 83523, "ĠÐ²ÑĭÑģÐ¾ÐºÐ¾Ð¹": 135622, "ĠcÄĥn": 136185, "(fl": 49429, "Ġfrail": 89379, "ĠuseRouter": 93125, ".background": 11711, "Publicado": 134131, "ä»ĸè¦ģ": 115374, "ĠÐ¼Ð°Ð¼": 131711, "vlc": 97570, "Æ°á»£ng": 97382, "æģĲæĢĸ": 104702, "éĺ²çĽĹ": 122745, "variables": 18583, "Ð°Ð»ÑĮÐ½Ð¸Ñħ": 143781, "ÙħØ§ÙĦ": 129828, "Ġoverclock": 79548, "ĠsarÃł": 78409, "ĉĉĉĉĉĉĉĉĉĉĠ": 83103, "-rock": 78699, "éľĢè¦ģ": 98862, ".loader": 46497, "ä¸ĭåįĬå¹´": 109589, "áĥĮ": 154432, "åħ³åį¡": 123529, "çķĻä½ı": 118719, "éľŀ": 103251, "åŃĻä¸Ńå±±": 120069, "azio": 56464, "Ġclosure": 21901, "nutÃŃ": 144082, "ĠExpanded": 39025, "ropolis": 53960, "tonces": 147884, "Ġiod": 78352, "leep": 3499, ".DropDownStyle": 82213, "ĠÐºÐ¾Ð³": 141952, "Ġbson": 50646, "Alternatively": 91243, "ĠTie": 58320, "å¤´èĦĳ": 106626, "ĠDex": 72084, ".getDay": 70302, "Ġinfections": 28817, "STDOUT": 88755, "Õ²": 154358, "Ġflashy": 94662, "ĉctrl": 83686, "æĹĹè¢į": 124483, "è¯¦æĥħ": 103886, "åĽ": 9718, "linha": 66334, "prompt": 40358, "ĠLottery": 71683, "ĠÐ±Ð¾Ð»ÑĮÑĪÐ°Ñı": 137536, "Normals": 91922, "Ġarp": 97764, "Fully": 66894, ">If": 65572, "assessment": 64204, "Ð½Ð°Ñĩ": 30064, "Ġcorrosion": 55016, "Ġmalad": 137356, "allocation": 92457, "\\Context": 95716, "ĠEstimate": 72155, "ä¸»åĬŀæĸ¹": 124115, "Ġcops": 34050, "EMPTY": 32704, "Ġda": 2994, "ä¸İæŃ¤åĲĮæĹ¶": 106293, "ĠDial": 65673, "æĶ¿åºľåľ¨": 124738, "ĠMySQL": 26256, "1952": 120398, "ÐµÐ´Ð¸Ñı": 144801, "ccion": 14050, "Ġwallets": 52954, "ĠÑģÑĤ": 18333, "msgs": 77220, "Ġpot": 3338, "Ġver": 2739, "Ġdil": 18806, "\">'+Ċ": 83393, "(w": 3622, "ellido": 24050, "Ġfatigue": 35431, "è´¨çĸĳ": 105428, "æ¬¢åĸľ": 108815, "Ġformato": 54489, "ĠÑī": 127737, "thren": 61825, "-par": 56615, "åľ¨ä¸Ń": 107247, "ĠHak": 70757, "Ġotp": 82741, "Ġembarrassing": 43752, "Ġakt": 22261, "å¢ŀéķ¿": 99816, "ĠÑıÐ½Ð²Ð°ÑĢ": 131810, "-room": 47445, "åħ´æĹº": 122081, "é¡¹çĽ®çļĦ": 103442, "Ġhoop": 78042, ">m": 73229, "AU": 34854, "(dec": 35534, "Ġgeht": 39052, "ugend": 132016, "Ġexecution": 11315, "(expr": 34153, "ĠBengal": 48709, "âļ»": 154751, "lbrace": 74639, "ĠNick": 14979, "APON": 49607, "Ġsclerosis": 89512, "ĠRip": 35261, "ĠBlessed": 75393, "å½ĵä»ĸä»¬": 124038, "éĥ½æľīäºĨ": 125757, "ÐĺÐ½": 129932, "Ġgenerar": 94182, "Gun": 63450, "ZIP": 61153, "ĠÐ¿ÑĢÐ¸ÑıÑĤÐ½Ð¾": 143095, "anco": 18525, "ivalence": 88056, "ĠMarian": 94615, "WebElement": 31455, "Persist": 60836, "<context": 34358, "Ġcomprom": 25440, "ĠFurious": 91555, "Ġassumed": 19074, "indrical": 61966, "Ġminimized": 80421, "Ð¾Ð»Ð¾Ð³Ð¸ÑĩÐµÑģÐºÐ¸Ñħ": 141727, "ĠÐ±ÐµÑĢÐµÐ³Ñĥ": 151115, "æģ¶æĦı": 110275, "Å¡tÄĽ": 130516, "ĠLovely": 63902, ".gov": 14147, "wx": 20937, "ARING": 90264, "å¤ĸåĬł": 122339, "ĠÐ²Ð¾Ð¿ÑĢÐ¾ÑģÑĭ": 131001, "Ġmano": 55569, "ĠkÃ¶zÃ¶tt": 143399, "Ġtitulo": 50728, "Ġpsychological": 23124, "Ġfive": 4236, "-election": 42389, "ĠMUT": 86695, "programm": 141115, "iÃ©n": 23473, "æľĢå¥½æĺ¯": 118897, "ylland": 51266, "ĠÃľbers": 139625, "ydro": 66519, "ĠAE": 41870, "æĢ»ä½ĵ": 102238, "ÐľÐ¸": 145658, "è¿Ļéģĵ": 114179, "=get": 28183, "Ġliebe": 90580, "åĪĨåī²": 107028, "ĠRCS": 78519, "Transactions": 48455, "ÌĲ": 151472, "ires": 3861, "(start": 10634, "Ġerfolgt": 140577, "Ġsurgeons": 72606, ".Bytes": 36677, "ca": 924, "Ġnotions": 58179, "...'": 72769, "é¬¼åŃĲ": 120816, "ibaba": 28163, "å¾Īå¤§ç¨ĭåº¦ä¸Ĭ": 110726, "ä¸Ńåįİæ°ĳæĹı": 104947, "archive": 16006, ",...": 28573, "ĠÑĥÐ´Ð°Ð»Ð¸ÑĤÑĮ": 144930, "æľ¬èģĮ": 119250, "Ġebx": 78658, "alyze": 55481, "crow": 51465, "è´¬": 107674, "ÑĨÐ¸Ð¾Ð½Ð½ÑĭÑħ": 131544, "Ġface": 3579, "Ġexplique": 145344, "ĠOktober": 72642, "å¥½åľ¨": 111761, "Ġrugged": 54417, "Ġbitterly": 98006, "ĠØ³Ø§ÛĮØª": 137741, "ä¸ĵè¾ĳ": 102957, "ĠPeru": 47452, "[])": 15781, "èĲ¥åħ»ä¸°å¯Į": 127330, ".Now": 13236, "Ð¸ÑģÑĤÐ¾Ð¹": 145792, ".randint": 23217, "ĠProf": 8458, "ĠPROF": 25439, "teilen": 137887, "ĠÐ½Ð¸Ñĩ": 139975, "218": 122301, "Ġç¬¬äºĮç«ł": 107785, "ç´łçļĦ": 113656, "ĉglog": 96316, "Ġmqtt": 59019, "Ġproprietary": 33073, "ä¹ĭæĹħ": 106060, "·¸": 32770, "-collapse": 24413, "ĠPv": 50014, "Interfaces": 40836, "ĠÑĤÐµÑĢÐ°Ð¿": 134123, "Ġdictate": 61440, "èĢĲå¿ĥ": 104876, "âĪ»": 153432, "æĿĢå®³": 114570, "ĠFactoryGirl": 57150, "ued": 3260, "Ġgerek": 130895, "//-": 61031, "Ġauthors": 12008, "Movie": 19631, "orris": 96498, "responsive": 50959, "ĠÎ±Îº": 136323, "/console": 95462, "ä¸įå®Įåħ¨": 116629, "ĠÑģÐºÐ°Ð·": 128340, "Ġsurplus": 40226, "=\"\",": 45194, "Ġrad": 8861, "è¿ĻçĤ¹": 108399, "ĠPatt": 44046, "ãĤĤãģĹãĤĮ": 138530, "ĠØ®ÙĪØ¯": 128811, "åĬŁèĥ½": 99355, "ĠSurvey": 23526, "ãĤĴæĮ": 133918, ".us": 21862, "å¤©ä¹ĭ": 127452, "Ġlieutenant": 72965, "Ġdello": 80936, "ÑĥÑĢÐ¾Ð¹": 146491, "ĠAverage": 23500, "okers": 40456, "å°±ç®Ĺæĺ¯": 113876, "_SP": 17721, "Ġæ°¸": 115287, "å¸®åĬ©åŃ¦çĶŁ": 116555, "ĠÐļÐ¾": 147262, "è¾¾åĪ°": 99819, "ĠUIAlertController": 52901, "))-": 64074, "hoff": 92521, "Ġgru": 128028, "Ġacid": 13612, "Owner": 13792, "Ġche": 3016, "Ê¯": 153908, "ĠCond": 44565, "Ġconstructors": 54351, "&P": 42601, "Ġcommunity": 3942, "ĠXCTestCase": 62369, "å¾Ĺä¸į": 112850, "Ġtransform": 5165, "æĽ´éľĢè¦ģ": 117413, "ĠaceastÄĥ": 144036, "æĮ¯èį¡": 121038, "ä¹ı": 100711, "PreparedStatement": 45136, "ĠMint": 41078, "ĠLuckily": 47208, "Ġlekker": 75939, ".WriteAll": 76526, "cam": 11594, "Ġgrazing": 82760, "_ERRORS": 65758, "ĠĠĠĠĠĠĠĠĊĠĠĠĠĠĠĠĠĊĠĠĠĠĠĠĠĠĊ": 72793, "ÏģÎ¯Î¶": 137518, "Ġcontextual": 64675, "Ġvindt": 146558, "Ġaccelerating": 68142, "ç¼ĸçºĤ": 120313, "Ġclass": 536, "numbers": 37184, "Ġtoate": 138881, "=node": 78521, "è±Įè±Ĩ": 114001, "()</": 85942, "Ġska": 53370, "Ġenorm": 17278, "ÐºÐ¾ÑĹ": 131671, "_wire": 74613, "éĩı": 98449, "å¥łå®ļ": 113418, "ĠFiltering": 80867, "-sector": 87380, "ðŁĴ¡": 151985, "-m": 1448, "ENAME": 66839, "ame": 373, "Ø§": 5703, "ä¸ĩäºĭ": 113762, "Ġ\"*.": 58719, ".NotNil": 93094, "_SUITE": 83619, ".byId": 92994, "Dating": 64654, "ĠSes": 62484, "åĲ¸è¡Ģ": 120057, "æĻºåķĨ": 111233, "Ġsticky": 27311, "ĠBayesian": 97306, "/container": 83205, "ä½łæľī": 108730, "è¿Ľè¡ĮçļĦ": 106749, "Ġsimultaneous": 57142, "å°ĳãģĹ": 139131, "Ġobjectives": 25320, "ani": 5559, "äº¤è°Ī": 110934, "ĠÐ²Ð¾Ð¿ÑĢÐ¾ÑģÐ°": 150061, "ç©ºåĨĽ": 109468, "ABCDEFG": 66516, "Ġow": 15558, "[s": 11874, "ä¿ĥéĶĢ": 109203, "Å´": 152993, "Ġdirige": 141161, "è¯Ħè®®": 117014, "Ġdetox": 60461, "ä¸įå®ī": 106176, "ĠÐ¿ÑĢÐ¸ÑĩÐ¸Ð½Ñĭ": 138212, "ĠProvin": 136538, "Ġthroughput": 63308, "Ġbees": 39243, "Ġeig": 34562, "_p": 620, "ÑĢÐ¾ÑĩÐ½Ð¾": 142576, "Repositories": 44553, "Ġbush": 29560, "åĨĴçĿĢ": 120804, "_Price": 92452, "ĠChristoph": 93796, ".AD": 91101, "ĠBasement": 91270, "æĲŀç¬ĳ": 109956, "(keyword": 63535, "å¸Ĥåľºä¸Ń": 117376, "Äįe": 91709, "Rpc": 59828, "ĠBard": 62755, "azzi": 70776, "åĲĪä½ľç¤¾": 107959, "servers": 67204, "_checkbox": 54874, "ĠÐĲÐ½Ð´ÑĢÐµÐ¹": 139399, "\"`Ċ": 8804, "ĠmÃ¨tres": 148873, "ðŁĺĦ": 152340, "à¹ļ": 153251, "_Enter": 90345, "ä¸ŃæľŁ": 107811, "è§£éĻ¤": 105315, "Ġcooler": 35642, "Ġ==============================================================": 70132, "ĠÐľ": 44101, "é¢Ī": 101776, "ĠStart": 5145, "ĠSe": 1345, "zenia": 34914, "Ġmop": 87334, "ezi": 131693, "........": 4007, "çĦ¶åĲİåĨį": 108559, "enerative": 74300, "_Err": 92837, "ĉright": 47620, "ĠAgen": 149350, "ĠbyÅĤ": 80970, "èı²å¾ĭ": 110003, "ë©°": 131871, "Dav": 150823, "Ġconting": 38331, "ĠHot": 8006, "ouverture": 142446, "äººæ°ĳä»£è¡¨å¤§ä¼ļå¸¸åĬ¡å§Ķåĳĺä¼ļ": 117977, "ãĥ©ãĥ¼": 135223, "Ġletz": 49447, "éĢįéģ¥": 115881, "Ġchildren": 2841, ".management": 58385, "asers": 59316, "Ġambi": 131421, "Ġtutti": 43033, "âĢĶâĢĶâĢĶ": 110852, "ĠIp": 34859, "è·³åĬ¨": 121457, "Ġ<": 366, "Manual": 51751, ".Widget": 59948, "eline": 4834, "ØºÙĦ": 142034, "Ġmake": 1281, "Ġesfuerzo": 142776, "à¼©": 153950, "eries": 4699, "Ð°Ð½Ð½Ð¾Ðµ": 132577, "ĠÐ°ÐºÐºÑĥÐ¼ÑĥÐ»Ñı": 137883, "ĠÑĥÑħ": 133812, "ĠKramer": 88736, "iencia": 129495, "Ġ{(": 32645, "Instr": 73795, "ÏĢÏĮ": 127867, "(url": 6522, "CartItem": 97147, "æĤ¬æµ®": 113258, "ãģ®åł´": 135235, "(Graph": 63325, "Ġmening": 66392, "(round": 32211, "ĠpÃ«r": 92378, "Ġchir": 69921, "å°½ç®¡": 101425, "CADE": 27960, "è¿ĩç¨ĭçļĦ": 110164, "ĠÐ¿ÑĢÐ¸Ð½ÑıÑĤÐ¾": 142281, "pick": 29138, "errorCode": 59909, "éªĤ": 102564, "RANDOM": 96838, "æµİåįĹå¸Ĥ": 117749, "Ġstriped": 67098, "locate": 22343, "ira": 8831, "ACTER": 37203, "Ġinterf": 33024, "Ġcelle": 71452, "INCREMENT": 77075, "_new": 5921, "ĠDIST": 35921, "ĠMockito": 46819, "Ġmonastery": 84065, "ĠVenezuelan": 81967, "ÑģÑĤÐ²Ð¾ÑĤÐ¾": 143613, "ÙħÙĦ": 127822, "VERBOSE": 78186, "Ø±Ø§ÙĨ": 136653, "-book": 33478, "Favorite": 38631, "æŃ¦æ±ī": 101709, "_REQUIRED": 53554, "Ġmodelling": 60440, "_A": 1566, "Ġindice": 55704, "ĠHI": 33251, "æº¶äºİ": 126048, "çıŃ": 99111, "sic": 51437, "SAM": 85620, ")});Ċ": 59430, "æĪĲæľ¬ä½İ": 123428, "iterate": 41277, "ĠSecret": 8598, "ĠRetreat": 86669, ",buf": 90354, "_Draw": 68647, "Ġbeginner": 48637, "ç«Ļåı°": 122657, "Ġquyáº¿t": 132984, "ĠÐ±ÐµÑģÐµÐ´": 142582, "Ð²ÑĤÐ¾ÑĢ": 143762, "Ġèĭı": 108174, "CACHE": 61303, "Construction": 50485, "Ġjails": 97731, "[Boolean": 74339, "cÃ©": 49665, "æĮĸæİĺ": 103874, "Ġperme": 53962, "-large": 38937, "æĥ³åĬŀæ³ķ": 115414, "ä¸ĵä¸ļæĬĢæľ¯": 112485, "Ġcanv": 71823, ".\"]Ċ": 78564, "éĵĥå£°": 123673, "ĠUINavigationController": 65586, "Ġpossessions": 52189, "ĠÐķ": 58865, "380": 117402, "licer": 96427, "æĺ¾ç¤º": 99962, "[row": 16947, "ãĥ³ãĥŃ": 135108, "Ã¼nd": 34103, "ä¸ĵæ³¨": 104240, "ãĤµ": 59353, "ĠDonne": 69461, "áģ¶": 153774, "Ġuniverse": 15482, "ĠCLIENT": 40076, "(JNIEnv": 64414, "pport": 138791, "ĠÐ½Ð°ÑĩÐ°Ð»": 133482, "[],": 12988, "è¯»åĪ°": 127307, "Ġpatt": 82378, "Ã¡ra": 131276, "ĠTrong": 135291, "Ġts": 10586, "Ġsandy": 66947, "DBus": 97859, "Ð¸ÑĩÐ½ÑĭÐ¼": 149942, "ç¡ķå£«çłĶç©¶çĶŁ": 112888, "ãģħ": 153629, ".TextUtils": 69282, "Ġaggregates": 70016, "ä¼¸æīĭ": 113208, "_tra": 27153, "ä¸ĬãģĮ": 141005, "åİ»çļ®": 108964, "åįĬä¸ªæľĪ": 116679, "Ġmarvelous": 79546, "ĠstatusCode": 35356, "tego": 132366, "profession": 95328, "è£ģåĪ¤": 106988, "Î®": 72368, "optimize": 93539, "_die": 61156, "ĠGiant": 40516, "IGIN": 55156, ".Hit": 84640, "Ġmature": 14840, "ãģĹãģ¦ãģĦ": 144760, "tail": 14576, "Ġrio": 93907, "æĭ½": 114731, "(ml": 89532, "ĉsuper": 12462, "ailleurs": 137406, "åĲĳä¸Ĭ": 104427, "Und": 19919, "ĠLaser": 39393, "Ġè®¤ä¸º": 123515, "ĠÎ¥": 135464, "âŀ": 96204, "hof": 75255, "ĠDetroit": 19724, "indruck": 139491, "Ġsid": 14075, "ĠÚ©Ø§Ùħ": 145875, "Ġmeet": 3367, "ĠIndianapolis": 41118, "æ¯ģ": 101947, "elyn": 90743, "åľ¨åĲİ": 119456, "Xçº¿": 126903, "Ġslick": 49320, "æľĢå¥½çļĦ": 101855, "ĠÎĿ": 130646, "ĠRyan": 13637, "Ġ150": 121149, "poons": 81415, "å·¥ä¸ļåĮº": 125751, "Ġpopulate": 30328, "æ°ĶåĽĬ": 126643, "Ġprivado": 144464, "çľĭäºĨçľĭ": 116838, "Ġmunici": 130210, "±": 109, ".setAttribute": 13086, "Ġtempting": 59781, "Ġspielt": 141315, "Ġspecimen": 56700, "ĠzÃ¡klad": 144297, "Ġpenchant": 97843, "Ġrestitution": 88469, "æ³Ĭå°Ķ": 124725, "ĠAshton": 85899, "äºĴèģĶç½ĳéĩĳèŀį": 117606, "_LR": 94141, "Ø§Ø¯Ø©": 130087, "(color": 13432, ".den": 62166, "Ø§ÙĨ": 39209, "åŃ¦ä¹łèĥ½åĬĽ": 124809, "Ġflap": 65949, "DebugEnabled": 68268, "ĉDD": 77769, "_ok": 19779, "Ġgd": 32481, "ĠrefreshToken": 73956, "ĠVie": 58891, "_adv": 35478, "tem": 870, "ĠcreateStore": 53083, "(token": 13266, "ĠJSBracketAccess": 95873, "Î¯Î±ÏĤ": 128917, "ĠCROSS": 96948, "_age": 31911, "Ð·Ð´": 130565, "è¶ĬãģĹ": 150516, "Ìĸ": 151478, "eter": 1404, "Ġdri": 49094, "ç¥¨ä»·": 115686, "Ġmeg": 18707, "Ġdose": 19079, "Hello": 9703, "package": 1722, "å¥½ãģį": 139311, "çĥ·": 108028, "mentos": 131150, "è¾Ľè¾£": 119534, "ä¸ĵæ³¨äºİ": 109609, "å¤ļåĪ©äºļ": 124637, "Ġkernels": 63062, "èĬ·": 118192, "06": 100539, "Ġå¼ıä¸Ń": 114018, "'int": 54161, "_PK": 63441, "âĬļ": 153525, "ĠNSString": 9332, "èģ·": 132666, "ĠÐŀÑĩÐµÐ½ÑĮ": 135244, "chas": 58275, "Ġkw": 29413, "ä¹ĭåĲį": 116926, "ktor": 74684, "ĠÐ·Ð¾Ð½": 147167, ".Question": 58118, "lieb": 148965, "bericht": 147310, "themes": 40490, "ĠÐ¿ÑĢÐ¸ÑģÐ¾": 142701, "à¾Ĳ": 154053, "ĠDecay": 96470, "ĠGovernors": 89245, "ĠObject": 3002, "ĠÐ¿Ð¾Ð½Ð¸Ð¼Ð°Ñİ": 145350, "270": 117082, "ĠPepper": 51442, "èºº": 103794, "ronym": 46592, "Ġsimplemente": 140692, "(theme": 57134, ".logger": 16064, "å¿ĥä¸Ń": 102361, "Ġmet": 2270, "Ġ+=": 1421, ")'],Ċ": 85590, "å±±å¸Ĥ": 104919, ".sc": 7685, "-xs": 9936, "Ġ\"-\"": 26438, "ä¸Ĭæ¬¡": 112590, "èĻ½çĦ¶æĺ¯": 113850, "ĠKnowing": 57239, "ĠbÃ½": 133672, "Ġgamers": 34571, "ÐµÐ¼Ð°ÑĤ": 133429, "Ġrigs": 94254, "ueling": 78362, "IFI": 33823, "ÑĩÐµÑģÐºÐ°Ñı": 134856, "åħ³éĶ®": 99955, "js": 2519, ";;;;;;;;": 40079, "ĠÑģÐ»ÐµÐ´ÑĥÑİÑī": 129192, "Ġzob": 136914, "_receive": 38349, "Mean": 18750, "ÑĬ": 33432, "æľºçĶµ": 106538, "çłĶç©¶ä¸Ń": 112319, "(Color": 15016, "uramente": 143338, "ĠColors": 9522, "æķ°æİ§": 111779, "ĠTelecom": 70332, "ç«ĸ": 106224, "ä½Ĩåį´": 107487, "Ġblu": 139193, "('.')[": 65630, "ASF": 47207, "ĠStringTokenizer": 71057, "Ġè¯¾ç¨ĭ": 121708, "èĻļèį£": 122217, "ç®Ĺ": 98849, "entine": 26786, "ĠApplicant": 90885, "çļĦåĲ«éĩı": 116689, "_h": 1523, "è®©æĪĳä»¬ä¸Ģèµ·": 117057, "ĠLibre": 74575, "_LO": 4606, "Ġ[];ĊĊ": 15424, "ĠAlter": 42607, "Ġsulph": 81996, "Ġsubmitted": 14624, "/graphql": 92525, "Ġfalsely": 59936, "eration": 20881, "aning": 42814, "ĠBounds": 68623, "addon": 50764, "Ġ&[": 44332, "ĠAvailable": 16122, "Ġrevise": 64265, "datagrid": 84293, ".Products": 64977, "ĉac": 80542, "PING": 72700, "Ġæ·±åľ³": 113052, "Ġnáº±m": 140574, "totals": 84150, "Ġperf": 21732, "ipers": 58428, "ÐºÐ»Ð°Ð´": 128982, "ude": 793, "è©ķä¾¡": 143636, "æĸĭ": 106896, "iate": 6493, "-eyed": 52168, "áģ¥": 153757, "ĠÐĿÐ¸Ð¶": 141102, "æĢ»ä»·": 122546, "Ġboosts": 65650, "Ġç«ł": 113848, "æłĩæ³¨": 108919, "Ġstag": 75828, "Ġéĵ¶": 120106, "ĠØ¨Ø£": 136379, "(dl": 65814, "Ġ(\"-": 97834, "?;ĊĊ": 68978, "Ġzv": 138415, "Ð¸Ð²Ð°ÑİÑĤÑģÑı": 136229, ".internet": 80335, "Ð³Ð¾ÑĤÐ°Ð²": 143626, "ä¸ĵèģĮ": 110293, "ĠÐĳÐ°Ð»": 142866, "<&": 51901, "Ġdaunting": 56216, "Ġejer": 132285, "ographer": 41271, "åĶ®ä»·": 106346, "bairro": 57983, "ĠPremium": 25582, "æĸĩåĮĸéģĹäº§": 107408, "å¤Ħå¥³åº§": 112695, "æĮģä¹ĭä»¥": 125462, "icode": 13625, "é¦ĸè½®": 123173, "å®īåħ¨ä¿Ŀéļľ": 126510, "-rate": 42781, ".ndim": 80283, "Ġpolit": 3354, "ä¸įå¹³": 114413, "ĠÑģÑĢÐµÐ´Ð½ÐµÐ¼": 140824, "åħ´ä¸ļ": 123065, "_def": 7844, "ounded": 13074, "Báº¡n": 94120, "ĠNikon": 61716, "æĿĳåĨħ": 126368, "äººæµģ": 111924, "Ġpremise": 39981, "_cut": 41085, ".qml": 44728, "_decl": 35635, "tfoot": 58082, "Ġ))ĊĊ": 48318, "Ġafs": 66227, "Ġeius": 67923, ".collider": 65644, "ĠFreight": 89493, "'>$": 65395, "å¾Īå¤ļä¸ľè¥¿": 127425, "ĠCHtml": 50998, "(fil": 87133, "(AL": 45953, "(handles": 34721, ".getSeconds": 79326, "åģļæ³ķ": 100747, "Ġè½¯ä»¶": 113002, "ĠÐ¾ÑģÑĤÑĢÐ¾Ð²": 134482, "aliases": 33761, "æŀģæĺĵ": 116632, "æĢ§åĴĮ": 101199, "ç´§æĢ¥": 104388, "èİħ": 123950, "htaking": 51900, "ĠGeek": 69840, ")Math": 44897, "Inject": 13729, "çļĦä¸»ä½ĵ": 119444, "æĸĩåŃ¦å®¶": 118600, "éĺ´æĢ§": 110633, "å¢ĥçķĮ": 105813, "çıłå®Ŀ": 108982, "ĠKale": 95931, "ĠdostÄĻp": 136501, "ettes": 45630, "æĹ¥å¸¸çĶŁæ´»": 109224, "-this": 59773, "å¥Ķè·ĳ": 111153, "Ġsentenced": 29024, "euros": 147568, "Ġtank": 12889, "Ġcáº£": 128210, "ĠFact": 36521, "Ã¶ff": 50839, "Ġhubiera": 148099, ".jet": 30147, "åħ»æĪĲèī¯å¥½çļĦ": 125644, "åħħæ»¡çĿĢ": 122668, "Ġaktyw": 145666, "ĠDemocracy": 46799, ".shows": 90689, "ĠÐ¾ÑĤÐ»Ð¸ÑĩÐ°ÑİÑĤÑģÑı": 143602, ">C": 25551, "éĥ½å¾Ī": 103301, ".forRoot": 43855, "LOGY": 51094, "ĠGiovanni": 75249, "ÐºÑĥÐ´Ð°": 136613, "Ġstringstream": 80271, "hou": 18137, "=======": 52883, "ê¹": 82502, "ĠDocument": 11783, "-cross": 75821, "ÅĽÄĩ": 24780, "keep": 13088, "ÑģÑĤÐ²ÑĥÑİÑĤ": 137817, "æľĢæ·±": 122528, "æĴŃéŁ³": 123691, "ĠåĮ": 93512, "TL": 13461, "cheduled": 26558, "oss": 3662, "bine": 46274, "å·©": 103909, "ĠRehabilitation": 79572, "æĪĳè¿ĺæĺ¯": 107365, "ecken": 135975, "Ð³ÑĢÐµÐ´Ð¸": 143112, "Ġneur": 21116, "å°ĳæķ°æ°ĳæĹı": 107805, "Ġphotograph": 10295, "ĠClothes": 75916, "Ġsurgeries": 67231, "Ġestamos": 66572, "çķľçī§ä¸ļ": 117791, "ĠAssange": 58995, "Ġatte": 91507, "anganese": 65384, "è¨": 28048, "isir": 131101, "Ġleads": 11503, "ĠIbid": 74869, "datepicker": 36080, "ĠDG": 49953, "Ġcomprised": 38747, "Ġelaborate": 35786, ".cmb": 56810, "Ġclustered": 91979, "ĠHav": 54739, "}/${": 22744, "ĠPreviously": 58283, "SECOND": 97376, "_IMP": 96596, "åıĳçĶŁè¿ĩ": 120193, "Ġtailored": 40566, "ĠÐ·Ð°ÑĢÑĥÐ±ÐµÐ¶": 142041, ".Log": 5247, "å¤©æ¶¯": 113459, "Krist": 75240, "Ġextern": 15625, "ĠPoetry": 67195, "amaÃ±o": 61873, "ĠFilms": 45195, "<ul": 19609, "ecycle": 16679, "_Adjust": 41468, "Stretch": 53540, "Ġdecent": 14965, "Ð¾ÑĩÐµÑĤ": 149986, "Ġestava": 77177, "Ġtweet": 11803, ")))));Ċ": 26494, "tages": 134762, "ĠProfes": 146481, "Ġretval": 22566, "-Semitism": 64337, "ĠÑģÐ¿": 82924, "UCK": 27451, "Ġengr": 49733, "ĠØ§Ø±Ø§Ø¦Ùĩ": 141587, "éĸĢ": 119189, "opolitan": 84212, "esters": 75100, "_DIRECT": 31597, "ceb": 84101, "æĶ¶è§Ĩ": 113171, "å¹´çļĦ": 99499, "ĠFinger": 62420, "/footer": 26758, "MatrixMode": 84538, "ĠCRUD": 63673, "ĠÐ²ÑĢÐ°ÑĩÐ¸": 151238, "onor": 53676, "Ġproduit": 52754, "ĠÐĵÐ¾ÑģÑĥÐ´Ð°ÑĢ": 137795, "ycznych": 137869, "ĠTOTAL": 46672, "ÐµÑħÐ°ÑĤÑĮ": 144952, "tigo": 133220, "Ġdvd": 49589, "TPL": 76891, "ĠÙĩØ§ÛĮ": 128178, "Ð¼ÐµÐ½ÑĤÐ¾Ð²": 138089, "Slug": 54599, "æĮī": 99067, "django": 13566, "Die": 18146, "ĠHeute": 148529, "Î»Î¿Ïħ": 138151, "×Ļ×": 41995, "yped": 32354, "Ð½Ð°Ð¼Ð¸": 133092, "=sum": 68314, "Ġëĭ¤": 49050, "Ġfantasy": 18349, "ÐľÐĲ": 134031, "ÕĬ": 154318, "Ġdoe": 97619, "çīĪæľ¬çļĦ": 120155, "æ´ĭèĳ±": 110899, "Central": 43154, "ynth": 45538, "Ġantiqu": 59866, "Ġunilateral": 85170, "ĠSne": 49692, "ĠEMS": 69543, "(box": 35864, "Ġifndef": 81613, "Ġtrong": 68580, "arto": 35763, "onta": 49097, "ĠCivic": 54463, "(seed": 43908, "Ġ::=": 63694, "Leaf": 31330, "æ®Ĭèį£": 126980, "refixer": 88607, "createUrl": 96402, "áº¡nh": 129215, "_hierarchy": 94246, "ĠNing": 84385, "(tableView": 68276, "ĉrec": 67411, "ĠJacqueline": 97828, "/vector": 79735, "ãģ²": 132252, "ĠGri": 62463, "ÙĨØª": 128893, "å¤§éĹ¨": 107953, "ðŁĳģ": 151889, "å°ıèħ¿": 121377, "Ø§ÙĦØ©": 133252, "è±¡å¾ģ": 104999, "Greek": 93555, "éĢļè¿ĩç½ĳç»ľ": 123245, "ç¼Ĩ": 104918, "sigma": 24836, "ÉĪ": 153194, "vp": 15248, "Ġçİ°ä»»": 118206, "Ġaluminum": 24573, "Ġprojecting": 80621, "_java": 76705, "Ġoffices": 19090, "ØµØ±": 131229, "ĠÐ½Ð¾Ð¼ÐµÑĢ": 73360, "HB": 30604, "ĠÑģÑĤÐ°Ð½ÐµÑĤ": 132777, "(locations": 97461, "Ġenf": 32385, "ken": 2712, "á»ĭ": 35748, "å®¶å¸¸": 113265, "Venta": 87338, "ĠRelay": 45893, ".resume": 53762, "Ġrecens": 141349, "omatic": 13478, "ä¼ļè®®": 99740, "isation": 7923, "âĺĩ": 154575, "erdale": 71765, "ĠGin": 50251, "éģĵå®¶": 122597, "ĠMetadata": 33427, "åĵĪçĻ»": 118370, "ĠDEFAULT": 11949, "_executor": 80548, "volume": 24984, "ĠExodus": 87114, "åº¦é«ĺ": 119881, "å¾Ĺå½ĵ": 126847, "Ġå¹¿ä¸ľ": 113771, "olesale": 42263, "æĺ¯åįģåĪĨ": 121495, "Ġopportun": 85146, "Ã¹a": 134038, "Ġbund": 10360, "_rev": 37882, "ĠNumber": 5624, "Ġdob": 45605, "Ġken": 48916, "APPER": 62985, "ĠszÃ¼ksÃ©g": 146009, "ĉunsigned": 9950, "@Component": 12831, "ĠÐ¾ÑħÐ¾ÑĤ": 145687, "à½«": 154016, ".GPIO": 66700, "]',Ċ": 44489, "ĠtelÃ©fono": 140296, "ĠdoGet": 56322, "Ġcholesterol": 37788, "å¤§åĶĲ": 120903, "èİº": 116313, "èĽ": 99199, "154": 124211, "Ġdiseases": 18775, "Ġtrader": 44108, "hode": 134145, "ĠXmlDocument": 74833, "çĬ¶çļĦ": 121248, "åľ¨æľĢ": 121683, "ĠTransitional": 65733, "_spec": 13585, "pherical": 44485, "Ġbreeze": 45017, "ĠJerusalem": 25367, "Ġcáº¡nh": 135561, "managed": 25192, "=\"\"><": 49252, "Ã¼ssen": 43708, "å¯¹å°ı": 126838, "Ġauxiliary": 53102, "ä¸įéĢĤ": 107021, "dup": 21858, "ĠÑĢÐ¸ÑģÐºÐ°": 147370, "æī¿å¾·": 123372, "ãģŃ": 129242, "rein": 149046, "ĠBhar": 66106, "é¢ģå¥ĸ": 108269, "Ġexplor": 47147, "Ġsimply": 4936, "Ġpayday": 52260, "Ġembod": 30897, "ĠConvers": 55024, "Ġallora": 145675, "migration": 79581, "åĽĽ": 98633, "è£ħ": 98770, "ÑĢÐ¾Ð»ÑĮ": 132295, "Ġassigning": 60327, "Î»Î»": 127917, "éĩĮç¨ĭ": 108123, "EDA": 86041, "Ġpuls": 54568, "Ġmurderer": 67472, "ĠÄĳáº¡t": 135722, "Ġceea": 147075, "GEST": 81090, "ominated": 49198, "Ġdeton": 54308, "áŀĦ": 154169, "Ġprospects": 26765, "']];Ċ": 66417, "è¿Ļä¸ĢéĹ®é¢ĺ": 121773, ".Equals": 16193, "Ġprohibition": 49548, "Ġcurated": 57238, "Ġtrading": 11128, "perience": 12963, "ä½İç¢³": 109072, "Ġswiper": 77691, "odzi": 74717, "ĠØ±Ø³Ùħ": 146987, "<Entity": 54157, "Ġclosest": 18065, "ÐµÐºÑĢÐµÑĤ": 146288, "Ġcan": 646, ".rotate": 35764, "cip": 79017, "rijd": 150045, "IPP": 35580, "-caption": 57919, "_third": 78880, ">čĊ": 1433, ">false": 30275, "ðŁĹī": 152281, "Ġsluggish": 86226, "ĉgui": 84913, "ĠìĽĲ": 139304, "IDGE": 53794, "ãģĤãģ¾ãĤĬ": 147277, "orse": 10831, "_logs": 42654, "dma": 44716, "áĥ¡": 154453, "ĠEndpoint": 46978, "(&:": 51690, "Ð¸ÑĩÐµÑģÐºÐ¾Ð¼Ñĥ": 147970, "ĠAngel": 23018, "ĠVa": 26529, "Ġprojets": 136253, "Ġmemoir": 49920, "Ġ\"$": 5201, "ĠSevent": 76601, "_clone": 54376, "iry": 33608, "ĠVentures": 74209, "_green": 47952, "å¿łå®ŀ": 119122, "å°ıå¥³åŃ©": 119221, "ble": 891, "âĺ»": 154626, "ĠÐ¸Ð³ÑĢÑĥÑĪ": 137769, "Ġregard": 5250, "Lat": 23077, "ĉNamespace": 90071, "ĠÐ¸Ð½ÑĤÐµÑĢÐµ": 143519, "á»ĵi": 129865, "oglob": 74827, "ĉĠĉ": 47629, "Ġcomplex": 6351, "ĠÙħØµØ±Ùģ": 144986, "ĠÐ·Ð°Ð´ÑĥÐ¼": 138280, "ĠÐ»ÐµÐ¿": 149841, "veckl": 149333, "[next": 49959, "ĠPOLIT": 82531, "ç§ĳæĬĢæľīéĻĲåħ¬åı¸äºİ": 114754, "ĠstringBy": 41860, "external": 20875, "Ġ\"": 330, "Ġemploi": 90930, "ĠImplicit": 96220, "å½Ĵè¿ĺ": 121397, "Ġchampagne": 63831, "Ġgarder": 143089, "Ġ(__": 22499, "_UC": 79667, "Ġ)}Ċ": 17541, "Ġåı¶": 112942, "XS": 49181, "lyphicon": 13675, "ĠMPa": 124893, "ĠjTable": 91770, "ĠGow": 91694, "çľĭåĪ°çļĦ": 107883, "ï¼Ł\"": 102803, "ĠNotImplementedError": 37996, "Agregar": 68015, "ĠJIT": 95380, ".vo": 32753, "Ġ}}\">": 41564, "âĬķ": 153520, "ãĤ¤ãĥĻãĥ³ãĥĪ": 148093, "ĠâĿ¤": 69945, "ĠÑįÐºÐ¾Ð½Ð¾Ð¼Ð¸ÐºÐ¸": 139177, "ĠS": 328, "Ġimperialism": 78317, "çİ«": 104870, "zhou": 51425, ".country": 33164, "ĠSoldier": 52085, "-but": 69276, "_JSON": 25278, "\\Exception": 26476, "(rel": 48919, "gzip": 70462, "Ġ96": 126378, "[Z": 84414, "çļĦåĪĽæĸ°": 116754, "_vertical": 60772, "ycz": 37933, "é¢ģå¸ĥ": 109990, ".re": 1327, "=>": 2179, "ä¸īåĨľ": 119125, "Mom": 58378, "jl": 43619, "è¾ħå¯¼åĳĺ": 111841, "osome": 31323, "ĠĠĠĠĠ": 414, "ĠÐ¿ÑĢÐ¾Ð¸Ð·Ð¾ÑĪÐ»Ð¾": 139840, "amental": 42841, "åĬ¨æĦŁ": 119583, "ÑĭÑģ": 131502, "á»¹": 131589, "å¦Ĥæŀľä¸Ģä¸ª": 126565, "\\model": 71151, "ĠÑĥÑģÑĤ": 127607, "onces": 42554, "æŀľçĦ¶": 106429, "QUENCE": 50509, "Ġulcer": 95066, "Ġmorphology": 77884, "ĉsession": 24978, "Ã¼rlich": 56150, "ĠæķĻèĤ²": 110309, "ĠCASCADE": 96247, ".innerWidth": 48163, "Ġenh": 8662, ".Lines": 90237, "hren": 132481, "ÑĸÐ´": 127573, "ĉoverride": 49962, "TB": 31032, "hes": 16651, "efe": 44689, "ĠKÃ¶ln": 142625, ".Collection": 28528, "ç»Ń": 98871, "ĠÐĴÐµÐ½": 143846, "Ġsublicense": 28684, "éģ¸": 123939, "äºĶåįĥ": 116342, "ĠMySqlConnection": 81316, "æĭįäºĨ": 118895, ">[]": 69885, ";?>Ċ": 39354, "(dx": 51332, "Ġacknowledged": 25420, "vere": 19253, "ĠCir": 40682, "ĠÐºÐ¾Ð¼Ð¿Ð»ÐµÐºÑģ": 131192, "Ġprepares": 47150, "createView": 75013, "ĠAdmir": 49152, ".Location": 4515, "Ġgew": 22480, "è¸ı": 101667, "ç»ŀ": 108983, "Actually": 52246, "ÑģÐ»ÑĥÐ¶Ð±Ð°": 148712, "Ġspr": 8150, "åĲįæ°Ķ": 116646, "ĠoffsetY": 67544, "(protocol": 83661, "ä¸ĭåıĳ": 120139, "Ġstiff": 29944, "_operations": 56958, "unprocessable": 67268, "ç®Ģçº¦": 109404, "Ġpret": 4410, "è¿Ļä¹Īå¤ļå¹´": 116658, "ĉO": 47747, "ãģ«ãģ¨": 143958, "ĠÎ²Î¬": 146000, "ĠcreatedBy": 83081, ":none": 21817, "samp": 91528, "Ġurgency": 53459, "°": 108, "æĸ¥": 104249, "åķıé¡Į": 136713, "çİ©å®¶": 102180, "éĢł": 98663, "SET": 5884, ")=>{Ċ": 20191, "cit": 53503, "Ġwhereas": 19815, "vio": 72162, "Ġnarr": 13399, "éľĢè¦ģæ³¨æĦıçļĦæĺ¯": 121238, "ĠDes": 3874, "Ġcirca": 53150, "ĠkÃ¼lÃ¶n": 137134, "ä¹Ķä¸¹": 122086, "ÐºÐ¾ÑĢÐµÐµ": 133701, "Ġinfluencers": 85520, "çĪ¶åŃĲ": 113138, "Ġstre": 5412, "ButtonDown": 58446, "With": 2354, "-w": 2630, "å¤įè¯»": 126839, "çģ¯å¡Ķ": 127328, "æµ·é²ľ": 110387, "creasing": 74863, "æĺ¯ä¸Ģæ¬¡": 116849, "zub": 145738, "Ġinherit": 23683, "esModule": 29895, "(sqrt": 82384, "ØªØ´": 147499, "ĠWoj": 95353, "Ġiteration": 19532, "ĠerklÃ¤": 85397, "Ġscant": 83163, "Ġlimburg": 59812, "Ġbq": 93968, "ðŁķĹ": 152167, ".push": 2552, "éķĤ": 126539, "ĠScholars": 97464, "(Integer": 11317, "ĠÐ¾Ð¿ÑĢÐµÐ´ÐµÐ»ÐµÐ½Ð½ÑĭÐµ": 150423, "ĠÏĮÎ»Î±": 147812, "idencia": 136175, "com": 874, "mientos": 131175, "Ġfine": 6915, ".Receive": 85647, "ReturnType": 83667, "Ġchinese": 56007, "æŃ©": 139055, "çīĮçħ§": 121608, "æĲ¬": 102179, "Ġswitching": 27671, "Ã¢nÄĥ": 136306, "embro": 48602, "_between": 48000, "Ġjeep": 84476, "çļĦä¸¤": 107429, "ä¸įä»ħåı¯ä»¥": 111468, "feature": 12747, "ä¸ĢçĽ´éĥ½": 123895, "ĠZw": 62716, "izable": 8334, "ĠvÃ¬": 129970, "elos": 137958, "ĠAwake": 40991, "Ġcellspacing": 26993, "åħ¶åĲİ": 112955, "Ġsiempre": 41363, "èĥĢ": 102326, "Ġhandy": 25086, "ç®Ģåįķåľ°": 121202, "hle": 132409, "Ġcourts": 18795, "ĠâĶ": 22553, "ĠSTORE": 53414, "ĠÛµ": 149495, "Ġspecular": 84712, "ĠIowa": 20657, "Ġtran": 23620, "}\".": 21847, "Ġçī¹èī²": 118944, "Ġdeix": 64284, "è´Ńä¹°äºĨ": 125445, "lerinden": 144055, "Persona": 63894, "Ġyouth": 12531, "official": 32658, "Ġagainst": 2348, "ĠGU": 45004, "(Transform": 82936, "ĠÐ¿Ð¾ÑģÑĤÐ°Ð½Ð¾Ð²": 134178, "ĠÐ²Ð¾Ð½Ð°": 149227, "greater": 64759, "todos": 48872, "_function": 9171, "(label": 13336, "ENSOR": 43957, "Ã´ng": 23947, "Ð½ÑĭÐ¼": 127492, "ĠRosen": 33855, "cli": 19484, "ement": 1114, "ListItemIcon": 94449, "èµĦäº§è´ŁåĢº": 123876, "Ã¡mica": 150435, "ç¢¾": 111673, "æŃĩ": 105054, "ĠOra": 143348, "Ġprzypadku": 136929, "empt": 20921, "âĪ¦": 153412, "_RESET": 26940, "Ġdisplayed": 12590, "Ġtous": 25563, "Martin": 48805, "ĠidÃ©e": 144253, "ĠâĢĻ": 17718, "æĢĤ": 123780, "ĠStringUtils": 42693, "Ġha": 6386, "@Inject": 25818, "ĠRever": 81505, "Ġdiz": 42044, "ĠDivine": 42020, "âĦĥ": 101286, "æ¼Ķè¿Ľ": 123215, "Ġank": 69947, "Ġactivates": 73368, "_ma": 69069, "ãĥŃãĥ³": 147655, "Ġmisses": 42052, "çħ®æ²¸": 108253, "isValid": 29085, "Ġapos": 139118, "ØªÙĬ": 129744, "ĠÑĢÐ°ÑģÐº": 130829, "/antlr": 69112, "148": 121919, "gettext": 56872, "Ġunseen": 62684, "Ġ***": 17141, "äºĨè§£": 99468, "æĪĲåĳĺåĽ½": 123094, "Ġtan": 14188, "mÃ¡n": 140058, ".nn": 19862, "/flutter": 62152, "orts": 18920, "cura": 53178, "ATES": 30187, "ĠstringWith": 18992, "è¯ĬæĸŃä¸º": 123493, "çļĦåŃĺåľ¨": 105691, "$list": 54858, "']);čĊ": 25565, "Ġpos": 1133, "entifier": 7189, "é¸¡èĽĭ": 102599, "rical": 12102, "Ġweiterhin": 134951, "æĢ§æĦŁ": 111487, "Ġdiverse": 16789, "Ġheels": 33200, "Ġ5": 99591, "icago": 9436, "Coverage": 65829, "ĠÐ¿Ð»Ñı": 136799, "èĲ½åĲİçļĦ": 122202, "Refer": 47155, "resar": 90438, "(In": 47320, "aju": 51075, "Ġmissed": 13619, "Ġpre": 855, "ialect": 54687, "_TOGGLE": 79114, "Ð»Ð¾Ð¹": 147761, "ĠTaj": 66213, "ĠDÃŃa": 148862, "ĠEllis": 43357, "ç»Ł": 98559, ".restart": 82071, "å¹´å¹´": 112367, "è®¯": 100068, "Ġnieuwe": 60410, "essential": 48178, "èĩ´çĻĮ": 119110, "rÃ¤": 128800, "aux": 11975, "Ġverified": 23866, "Shapes": 91419, "Ð°ÐºÑģÐ¸Ð¼": 129219, "_strike": 71171, "Ġmolecule": 41694, "Overflow": 41886, ".Buffer": 22563, "å¸ĪçĶŁ": 103469, "penden": 132783, "Ġreason": 2874, "å®ªæ³ķ": 105463, "Ġdescricao": 66234, "ĠMartial": 70721, "è±«": 103714, "åĴĮçĽ¸åħ³": 118683, "acc": 4475, "TexImage": 97768, "`),Ċ": 89004, "Ġmattered": 79967, "cern": 28444, ":initComponents": 55993, "Ġæ¸ħ": 105449, "æ°Ľ": 101353, "ãĥ»ãĥ»ãĥ»": 29978, "ĠTos": 68792, "ĠPoz": 78350, "ĠJasper": 69959, "Ġfug": 47782, "æľīèī²éĩĳå±ŀ": 125863, "ĠUITextField": 31921, "å£°èªī": 115434, "Ġcoil": 39445, "_OPTS": 83323, "é¢Ħç¤º": 117706, "HITE": 29467, "é¥±æ»¡": 108619, "åħ«åŃĹ": 116678, "ä¸¾æīĭ": 122508, "Ġsentido": 63921, "à§¤": 152701, "æĦŁè°¢": 101700, "errs": 84039, "Ġrooftop": 65709, "æĪĳè¢«": 119177, "ĠVil": 63196, "-ticket": 92440, "Ð³": 15378, "activity": 7175, ".dtp": 86649, "éĻ¢å£«": 107544, "Ġcomplains": 88223, "èĲĿåįľ": 102942, "ULATE": 78586, "(instr": 78289, "Ġhunted": 78532, "ãĥ«": 32461, "mentions": 96537, "Ġexplosion": 24130, "ĠÐ½Ð°ÑĪÐµÐ³Ð¾": 132604, ".browser": 38403, "nun": 141166, "Ġstocked": 69494, "Ġproceeded": 44018, "ÄĻt": 134641, "ĠÑĤÐ°ÐºÐ¾Ðµ": 130104, "terapia": 146902, "ĠÑĢÐ¾": 142833, "Ġ'');": 90749, "Ġminerals": 32815, "Ġná»¯": 133595, "Ô¾": 154306, "olesc": 133567, "ĠÐ·Ð°Ð³ÑĢÑĥÐ·": 139119, "expense": 58352, "TON": 10266, "çļĦä¹¦": 108414, "Ġtrenches": 94181, "ĠÙħÙĪØ±Ø¯": 131945, "icion": 13889, "à¼£": 153944, "Ġpetroleum": 58556, "ĠMazda": 61508, "ĠstratÃ©gie": 148156, "ĠSampler": 97770, "ĠFOR": 4613, "Ġobsessed": 43548, "Ġcampaigns": 20643, "Ġsits": 22950, "ĠÐ¶ÐµÐ½ÑīÐ¸Ð½Ð°": 134407, "ionage": 63237, "zei": 132372, "ĠÐ°ÑĢÐµÑģÑĤ": 141685, "Ap": 10606, "ðŁĺĭ": 152347, "ĠØ§Ùģ": 130159, "_AND": 21715, "ĠRAT": 97053, "æ·ĭ": 101692, "atura": 24227, "ĠGay": 20634, "ĉalign": 73475, "åįĹæĺĮ": 107800, "ĠmoÅ¼liwo": 135879, "Ġaliens": 35937, "âĢĿï¼Ł": 111470, "Hopefully": 67908, "itemid": 83433, "MouseDown": 69404, "ä»ĸä»¬éĥ½": 116565, ".')ĊĊ": 48017, "Ġè´Łè´£": 115842, "Ġorganiza": 148976, "aal": 53980, "Ġphosphory": 93199, "æ³ģ": 140010, "èĥĮæĻ¯ä¸ĭ": 105946, "åħĪçĶ¨": 121071, "ĠART": 33716, "orta": 87807, "æŁ¥å¤Ħ": 108878, "æĺ¯ä¸Ģ": 99112, "Ġmemberships": 87252, "Immutable": 58483, "Ġhit": 4201, "Ġaffluent": 80125, ".move": 13626, "leans": 21656, "ĠLeg": 7610, "formen": 139071, "StringBuilder": 68899, "ĠPara": 22928, "<P": 21552, "Ð¾Ð±ÐµÐ´": 135909, "iada": 146541, "ĠSlots": 52004, "ĠæĿ": 60173, "Ð¸Ð´Ñĭ": 139004, "Ġbasketball": 19204, "Ġ<+": 84996, "homes": 84570, "AsString": 26497, "ä¹¦åĮħ": 119028, "Ġfotograf": 62797, "Ġdragon": 25028, "Ġlaughing": 31448, "ĠtÆ°á»Łng": 136839, "å°ĨæĮģç»Ń": 119512, "lust": 70445, "Ġhighest": 8425, "Ġdefend": 10500, "èĳ¬": 103695, "Ð¾Ð»Ð¸ÑĩÐµÑģÑĤÐ²Ð¾": 97780, "(trigger": 60339, "ĠÑįÐ½ÐµÑĢÐ³ÐµÑĤ": 138999, "-version": 45098, "ĠdateFormat": 48950, ".FromResult": 74840, "ĠâĨĵ": 77229, ".role": 25925, "Temporary": 58950, "ĠBuilding": 16840, "Ġquick": 3974, "olis": 68258, "idepress": 58426, "ï¼¾": 66641, "ÐµÐºÐ¾Ð¼ÐµÐ½Ð´": 141976, "Ġzweiten": 138020, "Ġmot": 3852, "ogn": 3934, "ĠÐ½ÐµÐ·Ð°Ð²Ð¸ÑģÐ¸Ð¼Ð¾": 148075, "Ġtechnically": 31421, "graf": 75435, "Ġcutting": 14366, "ãĥ¼ãĥĦ": 133094, "ĠEvaluation": 39076, "ĠEven": 7418, "Ġkitchen": 9775, "ÑĥÑīÐµÑģÑĤÐ²": 84825, "äºĨèµ·æĿ¥": 105639, "Ġprecision": 16038, "[out": 49379, "ÑĥÐ´Ð¸": 148131, "ĠÐ¿Ð¾ÑģÑĤÐµÐ¿ÐµÐ½Ð½Ð¾": 140399, "Ġç»": 43801, "('');ĊĊ": 77613, "çĶµåİĤ": 114879, "urlpatterns": 39369, "è¶£åĳ³": 107615, "ÑģÑĤÐ²ÑĥÐµÑĤ": 132051, "Ġí": 10759, "reek": 10721, "ĠfÃ¼n": 95313, "_TW": 94942, "Ġtha": 48184, "Ġboil": 43440, "_agents": 75739, "Ġamendments": 40370, "audio": 16719, "Flash": 23809, "ĠåĽ": 49284, "ause": 3454, "PCODE": 55352, "ffd": 71998, "_Is": 31744, ".ant": 80083, "Ġaph": 87282, "Ġsupported": 7248, ",d": 11985, "ĠRA": 28356, "Ġavre": 140889, "StrictEqual": 69961, "å®ŀè·µä¸Ń": 105973, "Crop": 61710, "åŃ¤åĦ¿": 118418, "æľ¨": 99345, "Ġhookers": 91848, "åĮ»": 98678, "Ġè¯ķ": 116049, "yse": 142288, "Ã¼ber": 48674, "ä¸ĵå®¶åŃ¦èĢħ": 122516, "chest": 26237, "_smooth": 71110, "æįĲæ¬¾": 112057, ",filename": 92056, "ĵįä½ľ": 36363, "_detach": 92286, "preis": 136238, "å¢ŀå¼º": 100612, "leti": 147064, "âļĻ": 154717, "girls": 59778, "Ð°Ð»ÐºÐ°": 149439, "Ð¸ÑĩÐµÑģÑĤÐ²Ð¾": 59379, "ĠAmount": 25703, "thon": 4587, "ä¸Ģä¸ªå°ıæĹ¶": 123106, "ĠMun": 27787, "OGLE": 47059, "spe": 33214, ".innerHeight": 53714, "_sku": 79007, "æº¯æºĲ": 122394, "Ġloses": 32047, "å°±æĦıåĳ³çĿĢ": 124331, "!": 0, "æĿ¥åĽŀ": 112090, "ĠBrown": 10466, "ä¸´åºĬè¯ķéªĮ": 121502, ".Counter": 85578, "åĨĽ": 98826, "igli": 75554, "ĠStephanie": 47841, "/\".$": 39822, "Ġencontramos": 147959, "çļĦä¸Ģåľº": 122755, "ĠÐ¼ÐµÐ´Ð¸ÑĨÐ¸Ð½ÑģÐºÐ¾Ð¹": 149199, "cz": 13760, ".Uri": 35598, "ĠÐ¿Ð¾ÑıÐ²Ð»ÑıÐµÑĤÑģÑı": 140761, "dbg": 53956, "ruit": 20979, ".KeyCode": 74988, "çĶŁæĢģç³»ç»Ł": 112633, "ĠÃ§alÄ±ÅŁan": 151310, "ĠÐ¿Ð¾ÑĤÑĢÑı": 147065, "apr": 59402, "Ġordinances": 88030, "UGINS": 90352, "ä¸ĩä¼Ĺ": 125587, "Ġsnowy": 89031, "èī¾æ»ĭçĹħ": 116519, "Ġsurve": 15391, "ĠÐ±ÑĬ": 135505, "ç¾¤ä¼ĹåĬŀå®ŀäºĭ": 117818, "artner": 91532, "idad": 5845, "å¸ĥéĽ·": 125228, "Ġsubtract": 32112, "ĠScan": 30982, "/sweetalert": 91704, "Ġsuppression": 45365, "rieren": 139544, "æł½åŁ¹": 106969, "çłĶç©¶ä¸İ": 123933, "èĦĳçŃĭ": 126730, "ĠSEG": 64547, "ĠÐ°ÑĤ": 130873, "RETURN": 51194, "GNU": 36040, "ä¸ĢçĻ¾": 106202, "}],": 71886, ".loop": 44094, "ĠCompany": 8187, "Tube": 11845, "Ġsteals": 61034, "'},": 24655, "Ã¼rger": 94061, "ä¹ĭçİĭ": 114289, "áº»": 128565, "ccione": 65836, "Filename": 20713, "çķ¶": 114145, "æīĵåĲ¬": 123269, "Ġsubmarines": 84837, "Ġcrib": 78376, ".Refresh": 49522, "ä¸Ńä¹Ł": 112760, "Visitor": 16778, "ÂłÂłÂł": 45124, "kaÅĦ": 136826, "(\">": 63397, "Èļ": 153149, "-',": 53461, ".cal": 27776, "Ġleds": 90214, ".bad": 31430, "ĠStatusBar": 67529, "Instance": 2523, "ä¼ļæ¯Ķè¾ĥ": 123898, "ÑĩÐ½Ð¾Ð³Ð¾": 134262, "ĉĠ": 3677, "åıĹéĤĢ": 119625, "çĶµåŃĲéĤ®ä»¶": 119917, "ÙĦÙĬØ§Øª": 144066, "ĠOpt": 16538, "[temp": 53417, "éĻ¢æł¡": 102108, "æĻĤéĸĵ": 131304, "irical": 66379, "ĠConverter": 39116, "ĠBIN": 81929, "EXCEL": 110388, "ĠæĻļä¸Ĭ": 126753, "fac": 22130, "('-": 14644, "çĶļèĩ³è¿ĺ": 119232, "natal": 72770, "åĲĮäºº": 126898, "Th": 1001, "_thresh": 49245, "Ġ=>$": 60131, "ĠÑģÐ²": 44555, "çĶ¨åħ·": 121771, "ðŁİ·": 151751, "-purpose": 57841, "ÑĭÐ¶": 139009, "Ġstimulating": 64222, ".Redis": 81720, "fidf": 80297, "Ġmujer": 51752, "Ġkk": 49546, "ightly": 71399, "_geom": 72425, "ç®Ģä¹¦": 119656, "URED": 85599, "_coeff": 31851, "Ġ2009": 105396, "Ġpharmacy": 32156, "ĠRon": 14315, "Ġbenchmarks": 61584, "Ġcocoa": 61354, "ĠCarlos": 29188, "lerle": 143507, "éģĵè·¯ä¸Ĭ": 116202, "Ġhighlighting": 38378, "ÐĽÐĺ": 134087, "Ãī": 26703, "ĠShut": 47972, "Ġtopped": 39585, "/w": 6324, "ĠÐ¿ÑĢÐ¾ÑĤÑıÐ¶": 134788, "å»¶æĹ¶": 123917, "Html": 13582, "ĠHaley": 67219, "ä¾Ľ": 98797, "çĦĬ": 103173, "/or": 5144, "çļĦæ¯įäº²": 115206, "_ACK": 50357, "Ġlandslide": 94897, "ĠDecision": 40203, ".tom": 72923, "Ġdiscourage": 64512, "misc": 46949, "-sensitive": 56285, "ĠElle": 45040, "Ġ:ĊĊ": 14502, "Ñ§": 152763, "Ġlives": 6305, "æ±īåŃĲ": 124972, "ĠPayload": 52566, "Ġzat": 136135, "fle": 145298, "Ġgrassroots": 55715, "à¥¤": 151430, "ĠÑĤÐµ": 127518, "Ġprojections": 40257, "åı¦ä¸Ģä½į": 122748, "Ġqualifies": 79265, "éĩįæĸ°": 100997, "fffffff": 82010, "Ġ$": 400, "ĠRES": 13162, "ĠAsia": 13613, "ĠĠĠĠĠĠĠĠĠĠĠĠĠĠĠĠĠĠĠĠĠĠĠĠĠĠĠĠĠĠĠĠĠĠ": 9695, "ĠIntegra": 142388, "åĴĮèĥ½åĬĽ": 123293, "ä¿¡ä»°": 104146, "ĠÐ¼Ð¾Ñī": 130519, "Ġte": 1013, "company": 10134, "ÑĥÐ»ÑĮ": 127568, "atÃ³": 43775, "obel": 76493, "ÄŁ": 11006, "Ġ}}\">{{": 67681, "Óİ": 152866, "::*": 33911, "ĠpoderÃ¡": 144732, "åĨľèĢķ": 124900, "iteDatabase": 53889, "mono": 56021, ".Repositories": 46371, "atok": 140958, "Ġtransf": 19801, "-saving": 57589, "Ġmultim": 78414, "_DISK": 83809, "agogue": 70403, "Ġthirsty": 96295, "ĠØ¬": 81494, "çĭ¼": 102488, "ĠcÃ¡n": 137285, "Ġdeepest": 50189, "ÐĿÐµÐ´": 146576, "ĠCombination": 85148, "Ġexecut": 23429, "à¹": 8157, "ĠÑģÑĤÐ¾Ð¼Ð°ÑĤ": 149669, "ä¸İç¤¾ä¼ļ": 108887, "ĠÑĢÐµÐ±ÐµÐ½ÐºÑĥ": 146765, "FileInfo": 45161, "Ġclarity": 31142, "ĠÐ¾ÑĪÐ¸Ð±ÐºÐ¸": 146015, "Ġinterruption": 73429, "Ġinitializing": 56676, "Ġspinach": 67206, "ĠÐ³Ð¾Ð»Ð¾Ð²": 129367, "ä¸ĭæ¸¸": 107832, "_TRACE": 24169, "forums": 53697, "ä¸Ģä¸Ģ": 108859, "ĠBorg": 64016, "ĠÎ¼ÏĢÎ¿": 131952, "instructions": 61856, "éĩıè¡¨": 117862, "Ġffmpeg": 84215, "Ġbrasile": 67479, "ĠediÃ§Ã£o": 150099, "InputDialog": 92058, "clidean": 49756, "ĠSuites": 75408, "å®¡": 99164, "rium": 40230, "ãĥĹãĥŃ": 131909, "(SE": 50713, "ĠTim": 9351, "Ġcondiciones": 77035, "_le": 11745, "ĠÛ´": 149130, "ĠBark": 59117, "Ġever": 3512, "ĠÐ¸Ð¼ÐµÑĤÑĮ": 132294, "è´¢æĶ¿éĥ¨": 110924, "autoreleasepool": 86697, "Finish": 25585, "ode": 534, "ĠDelicious": 83992, "æĭĸéŀĭ": 124836, ">({": 94948, "Ġplea": 38758, "ĠJohnny": 31745, "interfaces": 28860, "äº¤æ±ĩ": 113198, "Ð´": 6949, "åħ±": 98675, "ĠzdjÄĻ": 83047, "Ġinhab": 25174, "ĠbaÄŁ": 133248, "ĠINPUT": 26068, "ĠGOD": 57978, "ĠĠĠĊ": 5872, "ä¸ļåĨħäººå£«": 117924, ".setError": 52037, "aus": 11849, "(double": 8900, "vertising": 29808, "(for": 19203, "_POINT": 27316, "ĠÐºÐ²Ð°ÑĢÑĤ": 139746, "ĠÐ´ÐµÐ»Ñĥ": 143259, "Med": 13302, "Whilst": 95863, "âĢľIn": 44867, "å®ģå¾·": 121210, "zes": 31660, "Ġtip": 11547, "Ġdrinkers": 97049, "Ġhieronta": 79557, "Ġä»¥ä¸Ĭ": 109282, "å¾Ĺä¸Ĭ": 107977, "áŁ´": 154280, "Ġstew": 59923, ".shell": 83651, "Ġhostage": 57968, "(Audio": 85404, "Î¼L": 124873, "ĠVe": 22525, "Ġcompte": 41129, ".PERMISSION": 58448, "à§«": 152708, "Ġtrimmed": 50647, "ĠbÃ¸r": 138082, "Ø§ÙĬØ©": 146294, "æĽ¾åľ¨": 107112, ".import": 34723, "Ġisto": 148664, "/z": 30956, "Ġlá»": 128122, "bal": 13305, "ribu": 128571, "Ms": 21582, "som": 56357, "ä¸Ģé¢Ĺ": 107287, "æ°¸ä¹ħ": 108070, "Ġpe": 1051, "ä»ĭç»įäºĨ": 104958, "Ġneighbor": 9561, "-conf": 50384, "Ġripe": 56314, "_Timer": 63568, "æĶ¿åĬ¡æľįåĬ¡": 121850, "æħ°éĹ®": 106910, "_scr": 59314, "âĸµ": 154501, "ĠTomorrow": 54627, "Ġ==\"": 72287, "ropsych": 96520, "Each": 4854, "Drink": 84240, "åħ·å¤ĩäºĨ": 122019, "åĩĿç»ĵ": 122085, "(download": 86161, "Ġinduction": 36862, "Alice": 61254, "/*----------------------------------------------------------------": 29749, "æĹ©": 99051, "ĠBeautifulSoup": 35731, "Ġcaption": 17235, "ĠJeans": 80745, "æĭİ": 117746, "Ġsicurezza": 137457, "ĠSynthetic": 74240, "ĠKauf": 57757, "ĠTalking": 60495, "Ġnuestra": 41455, "metis": 56561, "/sql": 59268, "æķĪåĬĽäºİ": 127352, "thinkable": 89359, "FileType": 71324, "ĠØ¯ÙĪ": 130912, "Ġeconomist": 44849, "cx": 25763, "Ġvoter": 25245, "åĢ©": 108936, "ÙĨÙĬØ©": 132399, "Ġsignificantly": 11935, "ucia": 150526, "Ġnewborn": 45029, "economic": 48537, "Ġ?>\"></": 49838, "ĠÑĤÐ°ÐºÐ¾Ð³Ð¾": 131216, "Licensed": 58244, "Ġdigging": 40870, "å·²è¾¾": 119827, "ilitary": 20206, "_wave": 59645, "Ġdriver": 5579, "Ġå·¥ä¸ļ": 124684, "Ġpwd": 32554, "ĠÐ¸ÑģÐºÐ»ÑİÑĩ": 130066, "Ð°ÑıÐ²": 145809, "-property": 60970, "bee": 31890, "ĠWinners": 75705, "åķĨåĵģæĪ¿": 112869, "Ð»ÑİÐ¼Ð¸": 143176, "Ġfavourites": 56551, "otty": 57245, "Ġ}},Ċ": 63932, "ĠTian": 47052, "æģ¶åĬ£": 109401, "ĠDISABLE": 56289, "ĠGerÃ¤te": 148048, "ĠDM": 20152, "angen": 58732, "_NPC": 90803, "ĠREM": 25508, "ĉjs": 94831, "(agent": 55042, "Ġdecorators": 62237, "ä¸Ĭæ¶¨": 102161, "/do": 81958, "[List": 51653, "_alignment": 50671, "åĲĦåľ°åĮº": 125956, "ç¼ļ": 108056, "nant": 51544, "Ġå¥¥": 112825, "Starting": 24542, ".Center": 27164, "Ġmasse": 57127, "$arity": 43954, "à¾Ł": 154068, "Take": 17788, "ĠARG": 32594, "sole": 1546, "äº¤æıĽ": 145190, "çº½çº¦": 105157, "èĩ³æŃ¤": 110751, "ĠAlla": 89884, "Ġ*****": 41188, "ĠVoldemort": 80037, "maÃŁ": 143726, "agna": 54588, "æķĻèĤ²å®¶": 125968, "Ġspezi": 137851, "Parent": 8386, "FACT": 58305, "å¹´ãģ«": 148191, "æ½ľç§»é»ĺ": 121520, "ç¡®è¯ĬçĹħä¾ĭ": 109998, "ĠPixel": 27377, "shows": 59044, "Cooldown": 79931, "frican": 47496, "lier": 5623, "Ð¼Ð¾Ð²": 129994, "asurement": 24287, "ĠGiz": 65805, "Ġentfernt": 140187, "çĦī": 108411, "-No": 97148, "Ġpresse": 140480, "Î´Î±ÏĤ": 142060, "ĠmiÃ©rcoles": 142110, "Ġhtml": 5272, "æ¯ıä¸ªæľĪ": 111497, "æ©¡": 104837, "chinen": 137873, "Ġ());Ċ": 49006, "Ġepub": 63492, "æī©å»º": 112564, "Ġtutaj": 146656, "èĭ±ç¾İ": 126883, "àª": 40489, "umu": 82520, "ĠFrog": 70875, "ILD": 30098, "ÙĬØ¯": 127735, "åį±æľº": 102332, "-list": 9026, "Ġhend": 83684, "æµģäº§": 114068, "å¤®ä¼ģ": 122564, "à¾Ĵ": 154055, "å²±": 119818, "ĠÐ¸ÑĤÐ¾Ð³Ð°Ð¼": 144996, "Ġrealloc": 65535, "Ġcollectors": 51110, "Null": 3280, "Ġhot": 4017, "èĻĲå¾ħ": 123570, "ØŁ": 129693, "Ġtravaux": 134199, "ãĥĪãĥ«": 147670, "Ġ/\\.(": 84167, ".City": 58388, "ç¾İæľ¯åŃ¦éĻ¢": 115977, "Join": 12286, "letzt": 136057, "åİī": 102121, "à¸¤": 153219, "Ġsurprise": 12755, "Ġcroissance": 143010, "å´½": 126383, "_fa": 95059, "Ġpocos": 141235, "above": 48128, "ĠChile": 32843, ".RegisterType": 81037, "ĠBET": 40127, "Ġartist": 10044, ">}</": 77310, "bur": 11235, "ĠgÃ¶": 30068, "æ³¨æĦı": 99654, ".Apis": 95445, "Ġgym": 18780, "éĶĪ": 104361, "åīįåį«": 123405, "NotNil": 95337, ">Create": 75008, "(delete": 59298, "ðŁĶ¼": 152140, "Ġunico": 148507, "æ¡ĮåŃĲ": 111839, "ĠmyList": 90957, "Ġans": 8098, "æµªæ¼«": 103854, "Ġflyers": 84311, "Ġcrackers": 93024, "Ġdelightful": 48776, "_REGEX": 55817, "Î²Î±": 134053, "-layer": 47044, "ĠProgram": 6687, "Ġdisse": 32744, "ï½ľ": 105617, "è½¬åŁºåĽł": 123389, "è®²åłĤ": 116581, "Ġhermos": 143904, "Å": 129, "è½¦åºĵ": 124504, "adeon": 32557, "InternalEnumerator": 56710, "ĠNaval": 45459, "=Ċ": 14740, "à¼·": 153964, "ĠPhD": 29449, "ÏĥÏĦÎ±ÏĥÎ·": 145542, "refix": 5060, "è¿ĺèĥ½å¤Ł": 121575, "_joint": 52805, "[NUM": 73316, "icom": 53634, "æºĥ": 103795, "ĠLaurie": 78884, "åıĳä½ľ": 106239, "ĠMicro": 18129, "Ġpossono": 80361, "Ġflying": 16293, "ĠDriver": 14567, "î": 170, "åĩºèĩªå·±çļĦ": 127028, "Ã³stico": 142915, "Ġgenerators": 42818, "Ġpaar": 47798, "II": 5543, "ĠRosenstein": 89274, "$ĊĊ": 65942, "çļĦæĹ¶éĹ´åĨħ": 117633, "âĬ½": 153560, "ç»´ç³»": 124971, "(coeffs": 82508, ";'Ċ": 97488, "estival": 10858, "Intensity": 76271, "Ġtodd": 37738, "à¿ĭ": 154112, "åįĴ": 106288, "ĠYas": 69406, "Ġtunes": 53630, "æĿ¡ä»¶åĴĮ": 118112, "Ġstress": 8463, "ĠTreaty": 50696, "ĠFriend": 11582, "Ġvitae": 62671, "ĠÐºÐ¾ÑĤÐ¾ÑĢÐ¾Ð³Ð¾": 130002, "zenie": 38211, "Ġwag": 63863, "lass": 447, "udiant": 40612, "ĠGenerally": 43144, "Ġxin": 140880, "çĲĨåĮĸ": 123244, ".good": 59155, "USART": 51633, "ĠestÃ©": 134500, "constant": 18049, "squeeze": 51572, "OwnerId": 93647, "Ð°Ð»ÑĮÐ½Ð¾ÑĹ": 149831, "Term": 17229, "åı¯è§Ĥ": 122995, "())->": 32228, "è§īéĨĴ": 113498, "æľīå¤©": 126733, "çī¹éķ¿": 113151, "ibraltar": 84100, "Ġ})": 6413, "ĠÐĿÐ¾Ð²": 128354, "æŃ»äºº": 126226, "ĠgetIndex": 89029, "æĥłå·ŀ": 118303, "Ġfriction": 38368, "urnal": 62010, "ĠÐ½Ð°Ð¿ÑĢÐ°Ð²Ð»ÐµÐ½Ð¸Ð¸": 143748, "ĠØ¨Ø§": 81931, ".AppCompatActivity": 23696, ".Summary": 92212, "Ø§Ø¹Ø©": 132460, "Ġagency": 9085, "Ġinterference": 31087, "-mini": 66863, "ãĤĴæı": 142309, "Headers": 10569, "Ġmote": 86661, "Ġtal": 8209, "ĠRover": 51834, "(filter": 19667, "ĉraw": 75951, "çļĦå½¢è±¡": 112121, "å¹¿æ³Ľ": 101059, "(DIR": 82182, "Ġ&=": 14571, "çļĦè®¡åĪĴ": 120058, "ĠInterval": 40361, "rollable": 68256, "-J": 12003, "Ġguest": 8639, "Oracle": 48359, "åĽłæŀľ": 109378, "acellular": 63879, "Ġconfigura": 135202, "è°¨æħİ": 105665, ":Set": 15594, "(\"!": 84466, "Ġrelacion": 45727, "ÑĭÑĤ": 128094, "é©¬è·¯": 111733, "patible": 36885, "ĠExhib": 39062, "tring": 561, "NullOrEmpty": 65493, "ÑĢÐ¾Ð²Ð°ÑĤÑĮ": 134893, "_LEVEL": 17392, "èĦ": 98535, "mapping": 40567, "èģĮç§°": 107563, "ĠWestbrook": 87487, "\"_": 34915, ")x": 50391, "(world": 34129, ":\\\\": 23751, "[]": 1294, "ĠProduct": 5643, ".Dimension": 52880, "(ActionEvent": 32080, "æģŃ": 104979, "ittaa": 144198, "Ġassociated": 5815, "Ð¸Ð·Ð°Ð¹": 129819, "he": 383, "redentials": 15723, "Ġmigliore": 141177, "çķĮ": 98736, "XHR": 51695, "Ġverschied": 51551, "é«ĺé¢ĳ": 113980, "éĺ²çº¿": 111993, "å¤ľæĻļ": 107435, "Ġcoward": 64699, "à½ĭ": 153984, "ĠÐ´Ð¶": 132844, "Ġtolerate": 48722, "ĠJPEG": 54198, "itempty": 19880, "ĉappend": 81881, "####Ċ": 69428, "Ġints": 54358, "Ġrighteousness": 69705, "yre": 70896, "nieÅ¼": 130613, "æĢĢæĹ§": 125380, "Ġpenetrate": 63301, "SUMER": 76280, "gui": 19073, "ĠÐ¾Ð±ÑģÑĥÐ¶Ð´": 146026, "])==": 98146, "å®ŀåľ¨æĺ¯": 108310, ".ac": 15387, "à¦¾": 41080, "ĠNadu": 74218, "ĠtÃŃtulo": 84254, "niÄĩ": 141744, "ĠcrÃ©d": 66703, "bad": 13846, "avin": 34446, "éĶ¡": 102610, "ä¸Ģåº¦": 105787, "Ġcuffs": 88728, ".rmtree": 80547, "çļĦç§ĺå¯Ĩ": 118630, "losion": 40233, "issue": 11154, "ÑĢÐ¸Ð½Ð°": 137951, "ĠRELATED": 83652, "Ġwaving": 62662, "ĠÎ±Ïĥ": 134036, "Ġshines": 64308, "æĹłæīĢè°ĵ": 114797, "åºĲ": 108404, "eus": 88960, ")))čĊ": 36024, "ĠÐ¾Ð±ÑĢÐ°ÑĤÐ¸ÑĤÑĮ": 146286, "_lng": 88938, ".PropTypes": 53029, "ryptography": 46376, "å¡ĳ": 100560, "Ġtuition": 37742, "Authenticate": 98246, "çĶµåĽ¾": 118497, "ller": 54587, "ĠBlasio": 91616, "åį´æ²¡æľī": 108770, "Ġpowin": 133520, "ĠìŀĪìĬµëĭĪëĭ¤": 137205, "Ordered": 54022, "Ġwonderfully": 59567, "_Printf": 86534, "SerializeField": 18356, "ĠÐĲÐ²ÑĤÐ¾ÑĢ": 138872, "ä¼ģä¸ļä¸İ": 127152, "hoc": 87741, "wn": 1522, "ĠeventId": 69478, "_exam": 82644, "----": 381, "iliyor": 147390, "Ġcrist": 67490, "ĠÙĪØ§ÙĨ": 149916, "lico": 35829, "bolo": 149214, "aaaa": 28358, "Ġmornings": 56817, ".design": 35847, "_picture": 42164, "ĠÑģÐ¾ÑģÑĤÐ¾ÑıÐ½Ð¸Ð¸": 133589, "ĠgetOrder": 81947, "Ġsteigen": 151105, "Ġgev": 93612, "ĠBowie": 66758, "åĬ¨èį¡": 116653, ".btnExit": 93713, "Ġdrafting": 57504, "udget": 6312, "Ð¾Ð·Ñĭ": 140722, "ãĢĤĊĊ": 3407, "ÑģÐºÐ¾Ð¼": 128195, "é£İéĽ¨": 105927, "AI": 15457, "ĠÙĩÛĮÚĨ": 144256, "Ġfounding": 35056, "elde": 138725, "icable": 73758, "Ġtháº£o": 149216, "Ġ'&'": 84401, "èº²åľ¨": 122972, "æ¯įä¹³": 115657, "ĠTracker": 39958, "Ġdavvero": 139216, "ĠLenovo": 63246, "Ġtari": 130092, "Disable": 25401, "Ġ};ĊĊ": 3634, "Ġadm": 14581, "Ġvanilla": 31923, "HOUSE": 95587, "ä¸ĢçĽ´ä»¥æĿ¥": 109856, "ĠChurches": 92757, "arrollo": 141314, ".py": 7197, "Ġbz": 79521, "ĉday": 97369, "ĠRooney": 78990, "Ð¾ÐºÐ°ÑĩÐµ": 149541, "ÐµÐ½Ð´": 128027, "è¯¡": 109986, "æī¾æĪ¿": 111203, "ÑĥÐ»Ñĭ": 142959, "ixel": 5941, "Ġtasked": 50487, "tsy": 58553, "ulance": 40605, "Ġæ¹ĸåĮĹ": 122186, "æĪ´åı£ç½©": 123456, "tere": 54240, "ä¿¡æģ¯æľįåĬ¡": 116319, "Ġcombine": 15950, "Ġsimpli": 147926, "æººæ°´": 121349, "ĠØ§ÙĦØŃÙĥ": 139941, "PK": 22186, "ĠÑģÑĤÐ°Ð±": 133631, "Ġmean": 3076, "Ġassaulted": 45302, "áĥ°": 154468, "Ġguarda": 96567, "Mission": 55575, "ĠFLAC": 88360, ".ops": 46490, "Meteor": 95868, "ĠpodrÃ¡": 137405, "æİ¥çĿĢ": 102797, "Ġvir": 8865, "ĠBris": 43481, "ĠÑĩÐµÐ»Ð¾Ð²ÐµÐºÐ¾Ð¼": 143375, "[offset": 35627, "äºĴéĢļ": 111524, "ober": 5923, "ĠXi": 42183, "ĠÏĮÏĢÏīÏĤ": 136849, "ĠÙģØ¥ÙĨ": 136955, "ĠÏĢÎ¿Î»Ïį": 137302, "ĠÐ¿ÐµÑĢÐµÐº": 148344, "é¦Ļæ°Ķ": 110820, "ĠSV": 17457, ".at": 6847, "estro": 54192, "ĠKeeping": 55006, ".DeserializeObject": 50221, "Vien": 79324, "åıĺä¸º": 107591, "bez": 130892, "ĠÐ´ÐµÑĤÐ°Ð»ÐµÐ¹": 144565, "Ġ\"=\"": 36051, "ĉCHECK": 49080, "iri": 20636, "ĠÑĥÐ¶Ðµ": 90025, "ĠHor": 14731, "æ²ĻéĹ¨": 121638, "Ġrq": 60179, "Ġpersonali": 149140, "backs": 24045, "cow": 18887, "çĪ±å°Ķåħ°": 118280, "Increase": 69039, "Ġpetite": 37624, "Cfg": 42224, "MP": 5781, "#import": 5913, "ĠBundy": 95016, "Ð¿Ð¾Ñģ": 135892, "çº¦åĲĪ": 124651, "Ġtight": 10291, "ĠServicio": 149840, "Ġconcentra": 134402, "Ġteve": 139406, "ĠRNG": 72049, "æĬĬéĴ±": 122696, "Ġligger": 140258, "èıłèıľ": 114986, ",v": 14260, "ÑĢ": 2184, "ĠÑĢÐ°Ð·Ð±Ð¸ÑĢÐ°": 144267, "Ġslavery": 32540, "æµ·éĩı": 122688, "/item": 43743, "ĠSD": 8029, "ĠUndefined": 61930, "ioneer": 55026, "ĠTHEME": 85936, "Ìħ": 151461, "Ġpartie": 47504, ".nom": 61309, "(entry": 18209, "ĠWCS": 97520, "ÐĳÐµÐ»": 147792, "ĠUltra": 28116, "Ġfina": 146044, ")init": 67014, "ÑĸÐ³": 142566, "Ð±ÐµÐ·": 144827, "ĠOli": 134558, "\\Routing": 63541, "Ġucz": 86701, "Ġgov": 47331, "autiful": 34506, "ĠResource": 11759, "æĬĢæ³ķ": 115735, "ĠCharl": 45097, "Ð¢Ðŀ": 130932, "']).": 24973, "å¤ªéĺ³èĥ½": 107990, "_MISS": 63155, "]*": 8464, "Ġpaving": 80804, "Ġkiá»ĥu": 145991, "Sl": 7442, "å¤§è±¡": 120755, "ç»ıèĲ¥èĢħ": 111123, "ĠFue": 148542, "Ġ['',": 43410, "ĠPAGE": 24964, "ĠVIII": 56846, "eneric": 3469, "breadcrumbs": 34855, "Ġcontracting": 58994, "å¤Ń": 119684, "æį®æĬ¥éģĵ": 125195, "Americans": 90916, "_TM": 69699, "Ð¾Ñħ": 128104, "èĢĥè¯Ħ": 115530, "Film": 51148, "/****************************************************************************Ċ": 57611, "âĢĵâĢĵ": 52069, "æİĴçīĪ": 120034, "å¾ĹåĩºçļĦ": 126220, "GLE": 65080, "ĠÐ¿ÑĢÐ¸Ð½ÑıÑĤÐ¸Ñı": 149871, "-ren": 92229, "CCI": 84565, "Ġsorting": 28176, "Ġpickup": 29474, "ĠShepard": 71270, "ĠMeredith": 82987, "/graph": 71624, "Æ¿": 153061, "ÄĪ": 152919, "Italic": 84590, "Ġprostit": 11192, "Ġfungi": 79791, "æ¶īåıĬåĪ°": 111697, "nano": 92839, "ĠTaiwan": 28192, "ĠIndigenous": 45725, "Ġtear": 17551, "ä¸Ńä»¥": 126710, "Designed": 76519, "-rated": 54518, "å¼Ģåħ³": 105559, "Pag": 47417, "ĠStephens": 75319, "ĠBoulder": 55269, "Ġdeven": 134941, "kf": 81200, "Ġadvisory": 40215, "çİ¥": 121049, ".setParent": 86016, "©ëĭĪëĭ¤": 48154, "ĠçĶ²": 122357, "Ġadore": 60211, "ĠÑĥÑĩÐ°": 133577, ".contains": 8785, "æľīåĪ©": 108539, ",file": 57086, "ĠTek": 55062, "åĽł": 98453, "Ġenthus": 16263, "åįģäºĶå¹´": 125981, "ĠtempÃ©rature": 148282, "Ã¡ssal": 149816, "çĽ¸åħ³éĥ¨éĹ¨": 105710, "Ġsquid": 88435, "Ġimpacto": 137194, "Ġechter": 143111, "ewed": 91303, "ĠData": 2885, "):Ċ": 982, "ĠMaterial": 10225, "uste": 84953, "adores": 18215, "éĿŀå¸¸åĸľæ¬¢": 124481, "ĠØ®ÙĪØ§ÙĩØ¯": 135369, "fre": 24640, "cripciÃ³n": 137866, "Ġlearning": 6832, "Ġ?Ċ": 17582, "Goods": 46175, "è¡°éĢĢ": 115134, "çĶŁæ´»æĸ¹å¼ı": 108373, "Ġchoir": 70079, "_derivative": 95125, ".Not": 14988, "ibir": 81782, "ĠRouge": 55273, "Ġstreams": 22983, "Captain": 60630, "Ġpoly": 9856, "Ġnou": 19510, "âĢĶwho": 83149, "ngo": 70061, "ä¸įåİ»": 105198, "locked": 24558, "win": 7526, "Classes": 20037, "DSP": 89981, "æī§è¡ĮåĬĽ": 119332, "Ġcname": 77886, "paralleled": 67309, "Cc": 96930, "ĠMMO": 76568, "ĠCaf": 52295, "ĠKlim": 148979, "Moon": 75415, "ookies": 25793, "Search": 5890, "Ġvri": 141044, "æ¨¡èĮĥ": 106815, "rots": 88489, "Ġswing": 18773, "_REFERER": 86051, "_framework": 27473, "ĠGerald": 53895, "åĲµæŀ¶": 110748, "Ø´Ø©": 145356, "ĠÑģÑĤÐµÐ¿": 131382, "ĉreport": 69409, ".*;Ċ": 13689, "~/": 22653, "atro": 35161, "Ġcollabor": 11177, "ĠPent": 22574, "çļĦæĦıæĢĿ": 106017, "Ġstage": 6430, "Ġafraid": 16559, "ĠWill": 4841, "ĠLego": 64202, "è¿Ļæł·çļĦè¯Ŀ": 116483, "Ġinfo": 3546, "(Direction": 81073, "ÐĺÐĿ": 140433, "Ġshades": 35917, "ĠSpeaking": 43719, "Monitor": 29981, "äººå¯¿": 119883, "çļĦæ°´": 102411, "_REPLY": 69676, "ä»İæĪĳ": 120242, "ĠErf": 41428, "Cro": 94244, "âĬĩ": 153506, "Ever": 43238, "/avatar": 57744, "Ġcrystal": 24979, "ĠThemes": 61652, "èħĲ": 100656, "åľĨéĶ¥": 125897, "Ġfolyam": 149693, "Ġchmod": 59201, "ä¸įä»£è¡¨": 115855, "aincontri": 73889, "ĠscrollView": 44493, "acja": 51349, "_RS": 58729, "ÏĦÎµ": 127603, "ĠÙĪÙĩ": 130182, "Ġäººçī©ç»ıåİĨ": 111174, "ç½ĳåıĭä»¬": 113500, "Ġxf": 58952, "ĠÑģÐ°Ð´": 131162, "É°": 153846, "æ¢µ": 107671, "ĠÐºÐ¼": 132056, "MAN": 22253, "ĠÐ½Ð°ÑĩÐ¸Ñģ": 148645, "Ġanalsex": 89090, "Ġpoisoning": 50800, "evenodd": 82937, "ritic": 48892, "Ġext": 1303, "licity": 24703, ".refresh": 25950, "Ġbestowed": 93932, "æĢ»åĨ³èµĽ": 111436, "Ġ\\''": 85940, "_xlim": 73976, "CEPTION": 21327, "Ġquier": 134114, "_cv": 42987, "æ³¢æ®µ": 125394, "æĹłäºº": 102754, "ä¸ŃåįİæĸĩåĮĸ": 126163, "çĻ¾åĲĪ": 110894, "++){Ċ": 6796, "ä¸ĢåĨį": 117980, "ĠPagination": 44637, "æĪĳåİ¿": 117645, ".intellij": 36131, "ĠGBP": 82572, "ĠÑĢÐ¾Ð´Ð¸ÑĤÐµÐ»ÐµÐ¹": 136723, "Ġpuss": 83010, "Ġká»·": 148172, ".Listen": 67837, "ĠiPad": 22214, "çķĮéĻĲ": 111700, "ĠÑĥÐ²ÐµÑĢ": 131127, ".DELETE": 58524, "ĠìĪ": 68682, "-temp": 67694, "&&(": 58617, "\\Order": 68997, "Trace": 6550, "âĢ¦âĢ¦": 14044, "åĽ½èµĦå§Ķ": 122184, "ĠRelations": 31236, "ä¸Ģå¤ľ": 109526, "ĠIAM": 87455, "Gs": 80495, "ĠÐ¿ÑĢÐµ": 127509, ".pc": 52981, "å¤§ä½¿": 108319, "Ġvortex": 85809, "åĬłçĽĸ": 118349, "ç»ĦåĴĮ": 116433, "Ò£": 152823, "SceneManager": 69808, "CUSTOM": 60613, "æ¡ĥèĬ±è¿Ĳ": 121278, "åĻ¶": 126780, "ĠBorn": 37620, ".Verify": 54486, "ĠDecomp": 61938, "Ġming": 71606, "ðŁĸĿ": 152237, "izontal": 6506, ".executeUpdate": 38704, "Ġesper": 29940, "åį§": 102221, "Ġderes": 139822, "_tags": 16319, "Ġwaitress": 94409, "_RGB": 24739, ".coordinates": 64102, "Ġ({Ċ": 13852, "Ġstandby": 71192, "reak": 1108, "æ°Ĺ": 128426, "Ġfinancing": 28442, "åĻ": 98750, "è°±åĨĻ": 121656, "iya": 78836, "Ò½": 152849, "å¤®è¡Į": 107997, "æ³ªæ°´": 113136, "amd": 67420, "ĠPolitics": 34705, "derungen": 146435, "ĠÄĳá»ķ": 131179, "Ġroutinely": 38767, "+#": 16865, "Ġhomem": 72844, "å¦»åŃĲ": 102505, "ĠNSW": 37712, "Fab": 51825, "ebin": 75550, "ĠMEP": 90084, "Ġcorre": 12317, "Ġguarantee": 15428, "etchup": 90141, "Ä±ÄŁÄ±": 73757, "Ġration": 65321, "eso": 28727, "nemonic": 70244, ".Copy": 31637, "Button": 1567, "ĠINDEX": 39088, "ĠÐ²Ð°ÑĪÐµÐ¼": 142824, "_correct": 31417, "unread": 96007, "Â»,": 59793, "Tex": 22649, "ĠGluten": 94115, "ĠDear": 42578, "Ġfatally": 70818, "Recipe": 28677, "å°±è¡Į": 106997, "ĠHulu": 76774, "ĠxÃºc": 144796, "Ġgla": 135564, "Ign": 43088, "Ġamy": 62834, "æľīä¸ī": 111460, "âĻ¯": 154675, "Ġsubset": 25912, "çº¢çļĦ": 108726, "$I": 68201, "æĦıè¯ĨçļĦ": 110897, "áĥ£": 154455, "Ġ{}Ċ": 5613, "druck": 134244, "expire": 51819, "ĠØŃØ³Ø§Ø¨": 138352, "opes": 18492, "Ġdifferences": 11793, "Ã¡nÃŃm": 149699, "ä¸ĢæĿ¡": 101725, "ĠÐ¿ÐµÐ²": 141222, "Erreur": 70969, "å¸Ŀçİĭ": 113496, "Ġrevel": 22063, "Ġslipping": 63249, "ĠmListener": 81718, "âĭĲ": 153579, "æĬķèµĦ": 99226, "åģ¥åº·çĬ¶åĨµ": 124871, "Ġperg": 89043, "]]></": 87949, "Ġdebe": 34204, "Ð½Ð¸Ñİ": 134659, "ĠkWh": 95082, ".Exec": 30676, "-spinner": 69586, ".up": 17627, "Ġpudd": 54218, "lements": 89706, "ä¸ŃåĮ»èį¯": 105744, "ĠCottage": 74799, ".Checked": 17018, "Ġvoll": 55974, "ä¸įèĥ½çĶ¨": 126355, "azaar": 67841, "ç§ĳåĳĺ": 122017, "ĠÐ´Ð²Ð¸Ð¶ÐµÐ½Ð¸Ñı": 133057, "Ĥ°": 130891, "Ġadminister": 26012, "ĠTRACK": 72931, "Ġblister": 80038, "Highlighted": 85732, "å½Ĵç±»": 126594, "nÄĽnÃŃ": 141595, "ĠPropel": 43608, "è¨Ńå®ļ": 142434, "ĠWarner": 31547, "ĠæĪĺ": 126158, "éģĤ": 104067, "åĵª": 99266, "Ġcq": 85114, "Ġskips": 90754, "ĠÐ´Ð°Ð½Ð½Ð¾Ð³Ð¾": 134778, "Ġastfel": 146761, "adge": 60280, "éĢļå¸¸ä¼ļ": 126769, "_CLICK": 51935, ".LayoutControlItem": 82256, "Ġimplicitly": 51433, "ĉtexture": 82618, "æĭīçļĦ": 126345, "Ġexpl": 3247, "<label": 14462, "ĠIslanders": 77825, "(++": 61148, "icol": 26378, "âĳ": 48009, "ĠTraverse": 86014, "ologist": 16141, ".dev": 21472, "ĠTagen": 136919, "ĠÐ¢ÑĥÑĤ": 143289, "é¢Ħæµĭ": 101980, "')}}\"></": 45540, "repair": 75831, "å±ħå£«": 121012, "é»ĦèĬ": 113272, "Ġperpetrated": 91554, "Ġmaintaining": 20296, "æµİåįĹ": 104455, "ĠÑįÑĤÐ¾Ð¼": 127732, "ķĮ": 47086, "Ġloud": 17339, "ĠKeystone": 70045, "Ġmodif": 131975, ".Keyword": 60794, "çļĦæĸĩåĮĸ": 104814, "Ġdistract": 63362, "æīĢç§°": 121152, ".APP": 54189, "æĹ¶æ®µ": 109429, "è´´å¿ĥ": 110500, "epy": 70021, "ĠGregg": 80042, "Çł": 153093, "fer": 802, "Ø§Ø¬Ùĩ": 136289, "ĠnÄĽjak": 142422, "ĠÐ¿ÑĢÐ¾ÑĩÐ¸ÑĤ": 139374, "å®īåĮº": 113578, "schriften": 145227, "vertise": 67295, "æŁ¿åŃĲ": 124852, "ngx": 32889, "Ġdr": 1353, "-selected": 44972, "Ġmouvement": 142805, "tiver": 134688, "_READONLY": 92908, "_Dep": 89929, "-navbar": 51989, "Ġsculpture": 49648, "Ġinterested": 8013, "åı²": 98914, "Ġtá»ĭch": 145914, "å°": 15786, "Ġpoj": 86309, "åĽŀåįĩ": 112165, "icide": 14492, "Ġdoivent": 95659, ">'.Ċ": 63266, "Ġemitted": 46653, "ĠCowboys": 40083, "Ġneuronal": 77674, "ĠGabri": 70184, "regions": 57314, "±Ħ": 146016, "Ġcream": 12638, "Ġeur": 144466, "Ġpierced": 87681, "183": 124380, "-unstyled": 79544, "Ġlao": 141100, "Ġcomprehension": 60666, "Ġoutright": 38917, "(SK": 71948, "Ġstabbed": 49858, "ĠzwiÄĻks": 150109, "Èģ": 153126, "æ°ĶæĦ¤": 125917, "_blocking": 90685, "colon": 76214, "çº": 22190, "ĠmouseClicked": 85032, "èĭ±èªŀ": 151254, "ÐĺÑģÐ¿": 140182, "Ġrecip": 24376, ".Help": 70350, "âĭ¶": 153616, "å¯¼è¯»": 119458, "Ġfranch": 16529, "È¿": 153185, "/modal": 73622, "tiche": 135727, ".alignment": 95977, "Ġopciones": 74838, "Ġflare": 59843, "ĠTechnique": 76996, "testCase": 65711, "ä¸įåıĺ": 104345, "çľ¼çĲĥ": 113783, "Ġhavoc": 65015, "Ġarch": 5325, "ĠRoyal": 16180, "jenis": 56140, "Ġterror": 8647, "Ø¯Ø§Ùħ": 132155, "Icons": 19071, "ĠCors": 52173, "Ġbackyard": 35482, "erde": 86085, "ĠpolÃŃticos": 138699, "ĠSharma": 59597, "åıªåľ¨": 115380, "ĠÐ´Ñĸ": 142265, "estimate": 39909, "Conclusion": 43185, "ritte": 97450, "nock": 86400, "ĠÐºÐ¾Ð¼Ð¿Ð¾Ð½ÐµÐ½ÑĤÐ¾Ð²": 150075, "ĠIsle": 53903, "Ð¸Ð½Ñĭ": 127881, ".fromLTRB": 76683, "åħ¨çľģ": 102910, "Ġincluir": 150051, "Î¼ÎŃÎ½Î¿Ïħ": 148557, "éļħ": 121964, "ĠRF": 22005, "äºīåıĸ": 104115, "Ġtháº¿": 129169, "Ġì¤ĳ": 70410, "ĠAnmeldung": 144264, "ĠTul": 41976, "cribe": 3114, "Ġschedule": 9696, "hari": 75303, "Ġging": 65611, "ĠLis": 42827, "ÃŃses": 67296, "é©¬æĸ¯": 109691, "ciÄĩ": 138458, "ĠBlacks": 66004, "gnos": 131526, "_DMA": 33620, "dT": 89617, "ĠÑģÐ¿ÐµÑĨÐ¸Ð°Ð»Ð¸ÑģÑĤ": 129651, "ĠÐ¿ÑĢÐ¾Ð·ÑĢÐ°Ñĩ": 144059, "ADING": 15800, "ĠHelps": 87784, "ĉrows": 67940, "ĠÐ²Ð°ÑĪÐ°": 142757, "å¹¶ä¸įå¤ļ": 121211, "åĿļå®ļ": 103053, "ĠVentura": 83958, "ĠpodrÃŃa": 81764, "ĠCancer": 25076, "Ġwei": 83212, "Ġgere": 65804, "è®¾å¤ĩæľīéĻĲåħ¬åı¸": 120128, "ĠConexion": 71912, "ĠjuÅ¼": 53563, "åĮ»çĸĹä¿ĿéĻ©": 111732, "Ġstato": 47851, "Ġdesi": 84783, "ÛĮØ±": 89078, "Ġrall": 38611, "çļĦä¸įæĸŃ": 123327, "ÄįnÃ©": 147898, "[-": 7609, "íĶĦ": 136842, "oni": 20737, "Ġru": 11117, "Ġwiel": 63521, "è¡¢": 118711, "ĠSicher": 73723, "è¿ŀèĥľ": 117860, "acyj": 94748, "ĠShi": 40479, "èģĶèµĽ": 103218, "çĲĨæĢ§": 104051, "ĠÑģÐ±Ð¾ÑĢ": 130619, "Ġå¾ħ": 119887, "æĪĲç«ĭä»¥æĿ¥": 120425, "Threshold": 37645, "Ġìĥģ": 57638, "!'Ċ": 48422, "ĠSenate": 9886, "PosX": 73166, "Ġsails": 84308, "å®¶çĶ¨": 107538, "ĠPrince": 19315, "Ġmaar": 31458, "ç»ıçºª": 106905, "emt": 147850, "ffb": 87817, "Ġtrovare": 81904, "çĭĻ": 118519, "Ġdikke": 74448, "æłĩè¯Ĩ": 106709, ".fullName": 81936, "ĠFuneral": 57951, "ĠBowen": 94715, "periment": 14319, "ĠYours": 96107, "ĠÐ½ÐµÐµ": 131812, "Ġseeker": 88394, "Ġtucked": 59700, "å¦Ĥè¡¨": 112894, "Ġsemen": 74072, "ĠSUM": 30614, "/ad": 44202, "sÃ¤": 141153, "ĠÐ½ÐµÐ²": 133133, ".goods": 55365, "æ©ĺåŃĲ": 119520, "#echo": 80828, "èħ¹èħĶéķľ": 119721, "ordan": 13387, "Ġuploading": 47038, "âĻªĊĊ": 64749, "fadeOut": 39404, "ĠrÃ¨gles": 143916, "DECREF": 70963, "WOOD": 85357, "Ġgraduating": 55541, "'}Ċ": 16404, "Ġsigmoid": 64416, "Ġpp": 11817, "è£ħæľº": 118603, "<Void": 43021, "Left": 5415, "Ġnecesidades": 135985, "ĠÏĦÎ·ÏĤ": 127835, "_call": 13420, "åħ·æľīéĩįè¦ģæĦıä¹ī": 119623, "è£ĻåŃĲ": 113180, "åĬ¨çī©": 100787, "cust": 44156, "Ġfantas": 39126, "Ġdors": 75682, "Ġexh": 56277, "([]*": 84586, "vue": 21449, "à½ª": 154015, "_bag": 73788, "Ġstacking": 73496, "å´ĩé«ĺ": 120766, "ä¸ĢçĤ¹åĦ¿": 120472, "ĠCynthia": 73986, "å¯¹æĪĳæĿ¥è¯´": 117534, "çĶ»åį·": 120334, "-names": 88306, "ĠlineWidth": 72280, "ÑĢÐ°ÑĨÐ¸Ñı": 136457, "Ø¹Ø¯Ø§Øª": 147419, "æĸ°æĪ¿": 116289, "oto": 2072, "-field": 19094, "åĢĴäºĨ": 116165, "èº«é«ĺ": 105703, "Ġdevastating": 32074, "acomment": 74622, "ç¥Ľ": 106140, "Ġdownloadable": 69134, "ĠClassical": 66941, "çīĪæľ¬": 102474, "ĠÙħÙĤØ¯": 147364, "-fashioned": 62820, "Í¹": 153298, "Ġtroub": 19866, "Drag": 17879, "Ġranking": 22940, "stable": 27897, "åģ¥åº·åıĳå±ķ": 111416, "ĠTVs": 59351, "ĠObserv": 30721, "Ġaide": 40352, "ä¸ºäºĨéģ¿åħį": 120384, ".pub": 47476, "áŁĨ": 154234, "herit": 9260, "ĠLSTM": 84766, "ç»ĨåĪĨ": 111058, "Ġparameters": 5029, "ĠPelosi": 58573, "Ġorthodox": 90481, "Freq": 54727, ".Vector": 14276, "prof": 21774, "Ġnike": 89865, "ä¸Ģå®ļçļĦ": 101429, "Ġweighted": 36633, "æ¥¼ä¸Ĭ": 117227, "kap": 38626, "ADI": 33623, "ĠMandal": 88144, "ĠModerate": 94178, "sessionId": 69989, "Ġhans": 86818, "Ġthreading": 30042, "Ġtether": 78926, "åĬĽéĩıçļĦ": 114872, "æĦıå¢ĥ": 114076, "ĳng": 137797, "ÍĲ": 151536, "ĠÐľÐ°ÑĢÐ¸": 150568, "Ġstrongly": 16495, "æĪĳä»¬åıĳçİ°": 124601, "ĠèĵĿ": 119226, "éĥ½çĶ¨": 121892, "/column": 88533, "ĉTRACE": 82804, "Ġwahr": 133703, "ĠçĻ¾åº¦çĻ¾ç§ĳ": 126697, "æĺ¥è¿Ĳ": 117852, "åĪĹåħ¥": 107222, "Ġ*/,Ċ": 46811, "æĺİæĻº": 119450, "åĭĩæķ¢": 105381, "Ġsituated": 29966, "åºĶæĢ¥": 102027, "Ġfia": 138665, "ĉMap": 26787, "*)_": 81989, "ĠPraxis": 141404, "Ġayer": 138849, ".Mutable": 73454, "ĠhistÃ³r": 134075, "ĠVARIANT": 81668, "å¼ºæľīåĬĽçļĦ": 119330, "ä¸»è¦ģçĶ±": 114505, "Compile": 45847, "ĠStill": 16363, "Ġfortn": 82522, "ĠChinese": 8452, "Ġpainter": 29371, "Ġimmer": 25452, "ìļ¸": 139966, "éģ¥": 102305, "æ·ĭæ¼ĵ": 111868, "ä¸¾èµ·": 121496, "åĩıå°ĳäºĨ": 110453, "ĠKarten": 140895, "ĠCarnegie": 62824, "å¤©åºľ": 118425, "aptured": 79582, "Ġdevoid": 75236, "avi": 6190, "ertia": 39901, "çĳŀ": 100466, "ĠÐ¼Ð°Ð³Ð°Ð·": 129007, "/Product": 77115, "æĹ¥çĶµ": 109230, "Ġmuse": 38640, "Ð¾ÑģÐ¾Ð±Ñĭ": 138302, "ĠÑĦÐ°Ð±": 147619, "Ġforward": 4637, "èıľåĵģ": 112540, "Eye": 49736, "@yahoo": 53276, "Ġ@(": 41942, ".HttpContext": 75239, "ĠKranken": 138018, "ibus": 33235, "Ġcolabor": 69351, ".created": 23006, "acle": 7902, "Ġdoor": 6006, "ĠCONTRIBUTORS": 21688, "ej": 35292, "æ¸©æĥħ": 119116, ",:)": 33765, "ĠIII": 14419, "Ð²Ð¾Ð´": 48493, "HA": 17001, "éĩĳ": 98524, "áĤĻ": 153809, "ĠChavez": 75634, "OFF": 26980, "Ġmoth": 96266, "(\"|": 38339, "åħ±åŃĺ": 126087, "éĵ¶æĿı": 118332, "Ġdialogue": 21228, "é«ĺèģĮ": 107061, "pluck": 58094, "Ġabsentee": 92309, "ĠBurk": 70110, "_SCL": 91539, "ĠØªØ¨Ø¯": 145450, "Ġfreezes": 92594, ".GL": 36290, "-tested": 95266, ".serialize": 33805, "âĢľThese": 91395, "ĠFiji": 84398, "Ġqualidade": 85175, "é¥¼å¹²": 117528, "Ġplagiar": 67081, "Ġretrouve": 147666, "ĠBroadway": 36485, "Ġchilds": 87271, "ISTRATION": 60110, "req": 2958, "Ġelectronics": 30373, "ç¤ºå¨ģ": 125016, "(query": 10736, "å°½çļĦ": 112843, "à§½": 152726, "ĠGraz": 92150, "æīĵå¼Ģ": 101373, "ĠKah": 83315, "ä»Ļå¢ĥ": 124259, "ĠcÃłng": 135176, "çī¹çº§": 125204, "rowse": 13388, "ĠÐºÑĥÐ»ÑĮÑĤÑĥÑĢ": 133923, "ĠToll": 84592, "(Line": 83767, "Ġgrape": 50816, "Ġvarit": 144846, "ĠBranch": 25042, "Ġlut": 62381, "æĬ¥éĶĢ": 111703, "áº¹n": 149695, "ĠSERVICES": 25554, "æł¸å®ļ": 121946, ".started": 79798, "+W": 97056, "ĠLin": 8563, "Setter": 44037, ",[": 17238, "_strlen": 44032, "æ·ĭæµ´": 120195, "_Real": 92523, "365": 113356, "Ġfirestore": 73419, "è¿Ļä¸¤å¤©": 123911, "_ta": 90940, "ssi": 45386, "ãĢĭãĢĬ": 100920, "Fe": 6123, "ĠNigeria": 28061, "(edge": 39573, "/ip": 54551, "ä¸įåľ¨ä¹İ": 119109, "Ġmeld": 69905, "-g": 2371, "gif": 33026, "Ð¸ÑģÐ°": 134285, "Ġoil": 5590, "Ġtriun": 143609, "ĠÑģÐ¾Ñħ": 129557, "ĠHome": 5379, "ĠGetHashCode": 81012, "fusion": 54201, "è¿Ľåº¦": 105389, "ĠØ¨Ø§Ø¹": 140764, "ä¾¦æŁ¥": 108686, "Important": 51937, "onc": 149415, "ĠExcel": 20982, "ðŁĳĨ": 151894, "å¯¹è¿ĻäºĽ": 115864, "Ġgrip": 24600, "Ġconsultants": 48771, "ĠìŀĲ": 64110, "ĠÐºÐ¾Ð½ÑĤÐ°Ðº": 135937, "pour": 54156, ".players": 36022, "LEMENT": 17810, "ĠØ¯Ø±ØµØ¯": 140766, "Ġunlike": 19798, ".allocate": 68227, "ĠBeat": 26710, "ä¸ĥå¹´": 110752, "'];ĊĊ": 15526, "å¯¹åŃ©åŃĲ": 113296, "().": 1005, ".Concat": 67107, "ĠspoÅĤ": 139331, "histor": 43192, "ĠÑĤÑĥ": 129073, ".full": 21483, "ĠSimmons": 49774, "(Block": 54873, "ituation": 133916, "Ġspecialization": 65399, "Ġpossa": 137342, "Report": 10356, ".zeros": 12768, "Ġpadr": 92279, "endance": 29606, "Ġbirthday": 15186, "ĠCongress": 7991, "ĠÐ¿ÐµÑĢÐµÐ²": 135190, "assy": 26617, "opaque": 94675, "ĠFarmer": 66972, "Ġbattered": 79016, "ponge": 36071, "æŃ¦æŀĹ": 121861, "æ¯Ķè¼ĥ": 146110, "æĿĲè´¨": 104756, "Ġ];ĊĊ": 15412, "ĠTibet": 43906, "ĠRays": 79035, "Ġcubic": 40672, "ĠIDs": 28261, "åĲŀåĲĲ": 124166, "åįļå£«åĲİ": 116001, "ĠÐ°Ð»Ðµ": 136883, "SPSS": 120999, "<decimal": 97239, "äº§éĶĢ": 126646, "_invite": 94113, "ÑĭÐ¼": 127588, ".shopping": 81347, "è¿Ļæ¬¾": 102662, "ĠÐ½Ð°Ð·Ð½Ð°ÑĩÐµÐ½Ð¸Ñı": 144424, "AttributeValue": 77926, "Õ±": 154357, "Ġupcoming": 14477, "End": 3727, "ä¿Ŀåħ»": 105418, "èįīåİŁ": 105596, "Ġdeeds": 53354, "Ġnecessario": 139788, "Ġlovely": 16673, "Ġlatch": 56543, "(bool": 9759, ".Rel": 38731, "Listening": 54562, "ÑĤÐ¸ÑĩÐµÑģÐºÐ¸Ñħ": 147289, "_adjust": 43898, "å°ıåº·": 109592, ")}\"Ċ": 97251, "HEMA": 35660, "uction": 2654, "ĠBASIC": 79406, "ĠØ¨Ø®": 131445, "Ġnimmt": 142045, "<Input": 79801, "DRV": 67389, "Ġngon": 145796, "Ġtháº¥p": 144550, "æ£Ģå¯Łéķ¿": 123282, "ĠPed": 19282, "åĵ®": 109823, "errupt": 10574, "âķĲâķĲ": 50585, "(attribute": 45138, "Ġdeputy": 25985, ".class": 3074, "ĠTTC": 87073, "æķ°çłģ": 108178, "Ġphilosophers": 60262, "Ã¡ndo": 141085, "endereco": 90386, "åĢŁãĤĬ": 144624, "(ht": 72821, "Ġmasks": 26054, "2012": 101236, "Ġeach": 1817, "Ġretreat": 29897, "è®¿éĹ®": 103508, "èµ°å»Ĭ": 110683, "ĠÐ¾Ð±Ð»Ð°ÑģÑĤÑĮ": 132345, "rasÄ±nda": 147765, "æī«çłģ": 114388, "Resume": 28463, "Ûĵ": 152572, "é²": 99147, "à½ŀ": 154003, "Ġsemble": 95580, "ÐºÐ¾Ð»ÑĮ": 130975, "Ġturnout": 51578, "ĠTAB": 48862, "Ġ########################": 95705, "irect": 1226, "Ġballpark": 95930, "âĸ°": 154498, "åĪ°æĹ¶åĢĻ": 114966, "ĠSerializable": 24783, "ĠresultSet": 41736, "ÈĨ": 153131, "Ġlist": 1140, "æ°ĳèĲ¥": 105894, "ĉparser": 55430, "GameState": 58662, "ĠÐ¿ÐµÑĢÐµÐ¼": 70269, "ĠHancock": 79621, "åĲĮå¹´": 107558, "å¥½åĲĥçļĦ": 120744, ".echo": 68146, "ãģķãĤĮãģ¦ãģĦãģ¾ãģĻ": 144524, "audi": 15511, "ĠMandarin": 82087, "Ġchoose": 5157, "åľ¨äºĨ": 104139, "ãĥĥãĤº": 149317, "amente": 8977, "å¯¹æĪĳçļĦ": 111858, "]),Ċ": 17017, "å¥³è£ħ": 118005, "\"));Ċ": 4010, "ç©ºéĹ´": 99717, "_vel": 34334, "getEmail": 88771, "akistan": 68782, "Ġnam": 16435, "Ġersten": 47856, "ĠClar": 29964, "Ġ\\\"%": 32183, "::": 486, "ĠSitting": 83062, "********************************************************": 52795, "ĠGlo": 24300, "_fetch": 11797, "\")));": 70927, "-he": 37141, "Heavy": 64005, ":I": 56771, "===\"": 68832, "RecyclerView": 37353, "atoren": 150669, "Ġocu": 136703, "UserId": 13495, "Ġcar": 1803, "_len": 6043, ";line": 84473, ".dequeueReusableCell": 56585, "_POOL": 51583, "Ġerfolgre": 73222, "Ġanda": 43748, "çº³ç¨İ": 104263, "Che": 26757, "ĠMEN": 67435, "å°±ç®Ĺ": 102631, "Ġpropios": 145146, "Ġejercicio": 95116, "ÙĥÙħ": 130601, "ØµÙĦ": 129200, "ç»ĦåĪĨ": 120558, "Ġdojo": 84163, "usions": 35529, "_parents": 81052, ".Matchers": 77929, "Constants": 9382, "ĠÎºÎ¿Î¹Î½ÏīÎ½": 149203, "(manager": 54798, "-gl": 69132, "/cards": 70357, "Ġfares": 68708, "Ġæīįèĥ½": 115028, "-frame": 46479, "èĮ": 90138, "ĠPhpStorm": 43630, "Ġmodo": 33177, "(te": 71298, "Ġeset": 136671, "_BGR": 50492, "Applied": 75253, "ighet": 80844, "Ġìĺ¤": 72513, "à¹µ": 153278, "ĠTechnolog": 134312, "Ġprosecutions": 96592, "èĭ±ä¿Ĭ": 125171, "_FUNC": 20829, "Ġroadway": 80454, "_Path": 65905, "Ġtelefon": 41911, "Ġbabies": 23853, "åŁ¹åħ»": 99853, "care": 10501, "åľ¨å¤©": 112285, ".newArrayList": 87203, "Ġpolici": 146340, "tyard": 55163, "äºĳè®¡ç®Ĺ": 112375, "æĺ¯åħ¶": 115319, "è¯±": 101809, "ĠCELL": 59281, "Brains": 67599, "Ã¤ss": 133412, "_LED": 37409, "ä½ľåĵģ": 99356, "Ġpenalties": 29870, "å®īéĢ¸": 125691, "Ġrin": 53364, "Ġoperates": 25976, ".option": 29057, "ptom": 79057, "Ġamid": 22558, "roke": 7441, "veux": 139550, "New": 3564, "ĠXCTAssertEqual": 32403, "Ġlicensing": 27315, "ĠnewText": 93856, "Ġreacting": 72486, "Ġlighting": 17690, "fahr": 128020, ".Do": 33434, "Ġarticle": 4549, "Diff": 21699, "Ġtrib": 13793, ".blogspot": 45021, "ĉMy": 77841, "thanks": 45224, "É·": 153852, "emale": 11743, "Î´Ïħ": 142886, "()>Ċ": 97380, "_PERSON": 72857, "Ġausgew": 141537, "_metric": 41063, "]])ĊĊ": 71550, "èĥ¡æ¤Ĵ": 105082, "æľĢå¸¸è§ģçļĦ": 123170, "ĠCAD": 46974, ".scala": 64207, "Ġsah": 130437, "ç®¡çĲĨä½ĵåĪ¶": 126160, "åĨĢ": 106834, "åħĥå¹´": 111594, "Ð¾Ð·Ð°": 131656, ".Startup": 92185, "Module": 3332, "ĠÑĨ": 37932, "free": 10588, "çľŁèıĮ": 113549, "æĹłéĶ¡": 108558, "Winvalid": 53875, ".OPEN": 85201, "MBED": 89694, "Ġsuffered": 16242, "_SUPER": 86126, "ĠÑĤÑĥÐ´Ð°": 137711, "ville": 7919, ".Helper": 68771, "Ð¬": 129622, "Flo": 91513, "ĉĉĉĉĉĉĉĉĉĊ": 51141, "Ġhorns": 59566, "Ġìłķë³´": 59621, "(Game": 27351, "çīĽä»Ķ": 108822, "compact": 39545, ".getIndex": 75293, "_Find": 94447, "Ġflow": 6396, "ĉputs": 42782, "ç²¾ç»Ĩ": 106103, "éĩĮæĸ¯": 106829, "äºĨè®¸å¤ļ": 107431, "Ð¾Ð»ÑĮÐ·Ð¾Ð²Ð°Ð½Ð¸Ðµ": 149153, "QUEUE": 28842, "Ġcarriers": 34717, "LTR": 65974, "_INTER": 16715, "iage": 63976, "Ġfolds": 60086, "sta": 20448, "ĠåĲ´": 107072, "Ġbiased": 47367, "ĠÐ´Ð¾ÑģÑĤÑĥÐ¿Ð°": 144392, "Ġapproaching": 29831, "otional": 40637, "ĠIh": 19016, "ĠÐºÐ¸ÑĢÐ¿": 141853, "è°Ĳ": 101451, "è´·æ¬¾": 101576, "ĠMedina": 83472, "hay": 66822, "ĠÐ»Ð¸Ð±Ð¾": 129667, ".Footer": 88742, "Ġlanz": 82457, "size": 2141, "_PL": 11077, "ĠIronically": 93092, "Holder": 8588, "åĩºå·®": 113931, "Ġgelir": 150686, "Ġè¿Ľ": 124761, "ĉROM": 35072, "æŀķå¤´": 119845, "_drvdata": 78905, "Ġdissatisfaction": 95983, "Ġ@[": 94995, "intl": 96819, "ĉas": 60030, "arth": 46215, "Ġvalley": 33419, "_Search": 65433, "ĠAges": 48682, "ÑİÑĤ": 68525, "Ġgoverno": 93057, "ĠOxford": 25132, "peng": 62635, "ĠâĢ¢": 7288, "Ġï¿½ï¿½ï¿½ï¿½": 59216, "å¤©çļĩ": 125275, "Ġwidths": 63948, "ä¸»ä»»": 100110, "ĠTable": 6633, "ĠéĿĴ": 109393, "à¼¶": 153963, "Ð»ÐµÐºÑģ": 135327, "Ġepisod": 149308, "çŃĶå¤į": 113574, "ĉstrcat": 50782, "çħ§": 98881, "ÐµÐ¹": 20985, "ĠBast": 44802, "Ġkro": 133468, "å¾ĹæĦı": 113153, "Ġvile": 79568, "æ´ĹåĩĢ": 101365, "ä¸Ģä¸ĭ": 99724, "<>();Ċ": 10869, "ĠRTL": 63281, "ĠSpending": 85934, "æ¬¡äºİ": 117379, "Ġposes": 32846, "Ġcambios": 81585, "know": 31893, "zio": 136447, "è¡": 12781, "ĠÑģÐµÐ¼ÑĮ": 142259, "dims": 54127, "åħ·æľīè¾ĥå¼ºçļĦ": 122895, "Ġbikes": 30335, "|Ċ": 7360, "inded": 16577, "æľªç»ı": 107047, "ĠInstruction": 28946, "torno": 136808, "Ġklo": 137758, "à¿ĵ": 154120, ".origin": 20207, "æ¼ĶåĶ±": 102853, "plies": 7202, "Ġpreset": 42676, "ØµÙĦØ§ØŃ": 146200, "Ġmez": 76176, "åħ³ç³»çļĦ": 104777, "Pix": 74105, "ĠCyprus": 56302, "_tcp": 45293, "CVE": 67310, "Doc": 9546, "Holy": 70651, "éĢĻ": 106679, "ĠRyu": 97403, "(K": 16721, "-reply": 77763, "ĠDresden": 84740, "ĠĠĠĠĠĠĠĠĠĠĠĠĠĠĠĠĠĠĠĠĠĠĠĠĠĠĠĠĠĠĠĠĠĠĠĠĠĠĠĠĠĠĠĠĠĠĠĠĠĠĠĠĠĠĠĠĠĠĠĠĠĠĠĠĠĠĠĠĠĠĠĠ": 36950, "Ġtouted": 65944, "ãĤ¸": 74733, "hydration": 80070, "Ġritmo": 142166, "Ġwsz": 38184, "paced": 68053, "Ġê°Ŀì²´": 74638, "-ST": 91798, "icer": 12992, "ĠÏĢÏģÎ¿ÏĤ": 143797, ".lbl": 13211, "ĠÑģÐ¼Ð°Ð·": 150402, "personal": 29500, "FromClass": 71587, "éķ¿æ±Ł": 103799, "Ð¼Ð¾Ð¹": 139811, "Î®ÏĤ": 128373, "Ġrecurrent": 63615, "ĠSudoku": 93462, "Îĺ": 137600, "Ġxy": 30662, "_two": 23178, "Ġcomp": 1367, "ÙĦØ§ÙĦ": 129652, "ĠêµŃ": 135137, "Ġbegged": 78654, "ÏĦÎ¹ÎºÏĮ": 130430, "åĪĺå¾·åįİ": 122567, "çĤĴåĮĢ": 116990, "Ġä¼Ĭ": 114075, "åĴĮæĹł": 114907, "Ð½Ð¸Ð»Ð¸": 133907, "ĠåħŃ": 106092, "_Manager": 47280, "Ġ===": 2049, "Ġterritories": 38236, "ayscale": 50023, "åħ¶ä»ĸåĽ½å®¶": 122717, "çĭ¬åĪĽ": 127044, "ĠLAP": 70786, "ĠparamInt": 40525, "ĠRVA": 44338, "Async": 6525, "ĠåķĨ": 120529, "Ġcarbon": 12493, "unately": 9501, "Ġ36": 113375, "ĠÐ·Ð°ÑıÐ²Ð¸Ð»": 133540, "_RA": 53197, "BEL": 78366, "Ġmend": 44516, "\"){Ċ": 14807, "[\"@": 73945, "Ġsuede": 95824, "ĠdacÄĥ": 138938, "Ġba": 12783, "ç¬¬äºĮçĻ¾": 118374, "Ġsmugg": 40512, "imedia": 26849, "Nickname": 74319, "Ġfoliage": 78370, "ĠÐ¿ÑĢÐµÐ´ÑģÑĤÐ°Ð²Ð¸ÑĤÐµÐ»ÑĮ": 141962, "ĠÐ·Ð°Ð¿ÑĢÐµÑĤ": 146012, "ĠQStringList": 42617, "éĻĪè¿°": 110065, "osphate": 91597, "Ð°ÑİÑĤÑĮ": 135970, "Ġsexdate": 61468, "Ġresetting": 77401, "_issues": 89487, "ises": 4909, "æķĳæı´": 103989, "_\\": 55636, "ÑĢÐ°ÑĤÐ¾Ð²": 145239, "éķ¿åŁİ": 106807, "Ġallez": 148735, "acea": 81903, "ĠGodzilla": 86276, ".getService": 71019, "Ġdunque": 149402, "Ġknowingly": 66525, "è¡¨è¾¾çļĦ": 121586, "ãģªãģ©ãĤĴ": 150424, "Dia": 79982, "ĠMar": 2876, "Ġenlarge": 52298, "ï¼ģĊĊĊĊ": 83083, "ĠImplemented": 86293, "nesc": 85877, "_link": 7233, "Ġrequire": 1373, ".FALSE": 87965, "JSON": 5370, "Ġconec": 134664, "-working": 63435, "åı¯æĮģç»Ńåıĳå±ķ": 108356, "Public": 12670, "Ð¸Ð½": 18909, "Ġ<*": 85490, "ĠScene": 17470, "ombies": 35516, "pecial": 2964, "Ð¿Ð¾Ð·Ð¸": 148166, "ĠNetflix": 22583, "éľĩ": 100250, "çļĦéģĵè·¯": 109852, "CS": 6412, "éĹŃä¸Ĭ": 122947, "ĠArgumentException": 39592, "è¾ĥä½İçļĦ": 124974, "((((": 66357, "éĻĪ": 99335, "ĠItalian": 14800, "çĭłçĭł": 113266, "')?></": 85011, "ä¸įåĩı": 125237, "ï¼ģâĢľ": 123165, "ĠØªÙĤ": 131493, "çĤ¹äº®": 116301, "\\Persistence": 89430, "ĠMN": 34821, "å¹¼åĦ¿åĽŃ": 101992, "ä½į": 98476, "éº¦åħĭé£İ": 126021, "ĠHex": 27139, "ĠBUFFER": 51793, "Ġtart": 44554, "çĶ¨æ³ķ": 109735, "ASM": 52238, "[np": 47359, "ĠbÄ±": 140906, "append": 5090, "Ġatend": 137174, "_ele": 60934, ".Controller": 29005, "gies": 66877, "Degree": 58362, "Life": 25669, "Ġsujet": 69306, "scope": 4186, "formulario": 92709, "Ġwho": 879, "erator": 39307, "ä»İä¸¥æ²»": 115506, "Ġfund": 3802, "æĸĩéĽĨ": 118436, "();Ċ": 543, "_InternalArray": 71575, "rugu": 150803, "ĠÑģÐ»ÑĥÑĩÐ°Ñı": 131847, ".equal": 9099, "ĠÐ²Ð·Ð°": 130858, "(card": 26911, "irc": 2437, "Php": 49822, "åĵĪåĵĪåĵĪ": 114766, "ĠÑģÐ°ÑħÐ°ÑĢ": 137908, "ĠMÃ©xico": 61735, "ãģĮ": 28098, "ĠNarr": 56487, "ĠHPV": 72799, "lands": 8165, "Ġtuning": 41105, "à¸ĸ": 94670, "Filed": 87352, "åŁİå¸Ĥåıĳå±ķ": 125229, "\\FrameworkBundle": 75791, "ĠÑĢÐ°Ð·Ð³Ð¾Ð²": 142885, "åĩºä¸ĸ": 122216, "åĬ¡å¿ħ": 110285, "ÆĪ": 153009, "è¡ĮçļĦ": 101681, "ðŁ": 9281, "'\"Ċ": 40934, ".writeObject": 90750, "Yesterday": 49955, "getSize": 58942, "éĢģåİ»": 117466, "Ġinflu": 6653, "Ġengineering": 14657, "ag": 351, ".setData": 23096, "Ġcruising": 71673, "didn": 95938, "Ġhover": 19511, "Ġ!$": 23315, "Ġåıªæľī": 113005, "Ġunderage": 86292, "Ġtbl": 21125, ".Filters": 77091, "ĠÐ¼ÑĥÐ·ÑĭÐºÑĥ": 146103, "Ã¤hrt": 143161, "Ġherpes": 68482, "},{": 16545, "å¹³çŃī": 103884, "ÙĩØ¯Ùģ": 151034, "Ġpublicado": 141938, "Cel": 86890, "_firestore": 89082, ".weight": 25075, "ladesh": 33956, ".WriteHeader": 69274, "ĠÐ¼Ð»Ð½": 130988, "ipv": 42432, "Ġkwal": 143385, "ØĪ": 152424, "_be": 21215, "ĠQueens": 26975, ".slf": 20489, "è°ĵ": 100069, "çº¢èĸ¯": 114123, "Deg": 45387, "è¯´çļĦè¯Ŀ": 120906, "ĠÑĤÐ¾Ðº": 142289, "tÃ¼r": 145733, "BU": 14916, "åĸ§åļ£": 122651, "è°İè¨Ģ": 115725, "ä¹°åįķ": 121766, "Ð°Ð½Ð°": 127793, "Ġloans": 16590, "ĠÎ¿ÏĢÎ¿Î¯Î±": 139978, "ĠÑĤÑĥÑĢÐ¸Ð·": 145437, "æ¨¡æł·": 107749, "Ġwealth": 11933, "Ġlui": 24324, "æİº": 109504, "ĠSNMP": 87402, "æ¬ºéªĹ": 109663, "Ġavec": 9749, "Ġcuckold": 80592, "-contact": 52646, "ĠValidator": 32418, "Ġinvestigations": 25802, "Ġgeven": 138520, "ĠåıĤèĢĥèµĦæĸĻ": 99924, "ĠLean": 61671, "è°Ń": 105321, "Ġmismatch": 35126, "ä¸»æĮģäºº": 105448, "ĠJulien": 86916, "Ġzav": 146342, "_lhs": 83589, "ĉWrite": 59953, "Ġexecutable": 32012, "schein": 133558, "Ġosoby": 139483, "çľŁç©º": 109101, "Ġprzez": 37429, "Ġconcept": 7286, "HeaderValue": 96897, "Ġexclusive": 13752, "Ġmassaggi": 45439, "Ġsmiled": 30425, "_paint": 91510, "ButtonItem": 22132, "Ġrequiere": 143587, "ĠPÃºblico": 146832, "éºĵ": 112191, "ĠPassion": 63334, "Ġmil": 7473, "igits": 18634, "FieldValue": 51771, "ĉworld": 75900, "_changed": 25135, "åħ·æľīéĩįè¦ģçļĦ": 123290, ".readFile": 54213, "Formatted": 43251, "Ġkitty": 79179, "ĉBlock": 94143, "et": 295, "/manage": 80460, "--------ĊĊ": 70286, "ĠConrad": 75385, "])ĊĊ": 9600, "èĩªæĿ¥": 111795, "uno": 16297, "ĠBritt": 62572, "ĠauÃŁerdem": 145111, "Ġgy": 28519, "Ġcompile": 19156, "WEB": 18796, "ĠFAA": 65456, "ï¿": 5564, "æ¹¿åľ°": 107766, ".None": 18445, "ĠÐ¶Ð¸ÑĤÐµÐ»Ð¸": 142493, "_campaign": 58158, "eli": 12288, "ĠRapids": 53824, "Ġæ¼Ķåĳĺè¡¨": 120605, "Ġdepends": 13789, "èĬ¥": 111261, "Ø§Øµ": 128268, "Ġeinfach": 35148, "ĉsprintf": 26349, "è¯ĬçĸĹ": 106906, "_reading": 81190, "TML": 142623, "åĽĽäºĶ": 123824, "äºĶä¸ª": 105053, "Ð°ÑĪÐºÐ¸": 142818, "translated": 52888, "ĠglGen": 92070, "ĠeconomÃŃa": 138514, "Ġsurpassed": 66739, "Ġstrateg": 5275, "áĤ½": 154417, "iesta": 58048, "æ±Łæ²³": 121916, "(fake": 73562, "âĸ¶": 154502, "ä¼ļåľ¨": 102541, "gcc": 70449, "scription": 12118, "ÑĢÐµÐ¼ÐµÐ½Ð½Ð¾": 131649, "æĻ¨": 101009, "ĠMENU": 35519, "ĠcolumnHeader": 94819, "ĠDeck": 28316, "endid": 50075, "Ġvoucher": 48354, "ĠCentOS": 94708, "Ġbends": 92018, "Ġreload": 18613, "ĉAddress": 97262, "Ġinsulting": 66603, "appearance": 95844, "ĠAurora": 46504, "ĠÐ½Ð¸ÐºÑĤÐ¾": 133869, "éĥ½ä¸įèĥ½": 110060, "Ġcumbersome": 94292, "Those": 22176, "GridLayout": 75061, "ä¸İçİ°ä»£": 119880, "Ġvex": 82476, "ĠunterstÃ¼tzt": 141667, "Ġmasturb": 29234, "ĠØ³Ø§Ø²": 131774, "Clinton": 49886, "åı¸": 98514, "/archive": 71082, "Ġallocator": 43405, "fetch": 9637, "feat": 44385, "eco": 53935, ".parentNode": 27204, "Ġear": 2430, "ĠFiesta": 93016, "uille": 141387, "Twenty": 75193, "apos": 30298, "ishments": 98114, "Ġsto": 41795, "ĠØ³ÙĦ": 146992, "éĥ½æĺ¯ä»İ": 124165, "æľ´": 102725, "åĴĮæ³ķå¾ĭ": 125120, "HTTPS": 81676, "Ġkneeling": 98175, "Ġthiá»ĩn": 138880, "æľīä¸įåĲĮçļĦ": 120221, "bsd": 51494, "à§ŀ": 152695, "vehicle": 19727, "lÃł": 147085, "æľŁéĹ´çļĦ": 119147, "--){Ċ": 49091, "_literal": 33935, "Ġflooded": 48480, "Ġ.'</": 90516, "ÑģÑĤÐ°Ð½Ð¾Ð²ÐºÐ°": 143073, "Vor": 134100, "outdir": 94056, "åħ´": 99106, "ðŁİŀ": 151726, "</": 522, "çķĻå¿µ": 124891, "spot": 18615, "_PLATFORM": 42973, "(tok": 66366, "éĴĪå¯¹": 100293, "É²": 153848, "áºŃt": 52535, "ĠnaleÅ¼y": 136181, "ĠResourceManager": 86545, "Ġwiping": 82450, "Ġarrives": 29569, "Ġsogar": 71218, "çľīå¤´": 119299, "åĵģ": 98433, "Ġbrokerage": 74267, "Ġbamb": 75389, "æ¸Ĳ": 99763, "ĠÐ²ÐµÑĢ": 62813, "Increased": 96030, "horse": 59261, "ä¸ºäºº": 104112, "(alert": 53081, ".Combine": 30997, "Ġtmpl": 79197, "Ġhust": 58247, "åŃĹçļĦ": 112482, "Feedback": 35173, "å®ģæĦ¿": 115938, "Ã¡r": 41023, "ĠPhen": 68283, "ĠDed": 50071, "Choose": 23983, "ĠRev": 10102, "ĠÑĢÐ°Ð·ÑĢÑĥÑĪ": 136070, "ayne": 95711, "izzato": 91067, "(priority": 76060, ".z": 3938, ".n": 1253, "åħ¨éĽĨ": 119700, "åĪĨå¸ĥåľ¨": 114004, "éĽĨæĪĲçĶµè·¯": 118320, "åĲĵ": 103648, "åľ¨çĶŁäº§": 123759, ".localStorage": 47805, "Ġjuillet": 134928, ".square": 38610, "Ġempower": 25141, "ConfigureAwait": 49366, "æĪªçĦ¶": 117564, "Ġpup": 14883, "Ġdossier": 52132, "Ġmetic": 58260, ".partner": 69582, "çĪ¸": 99837, "ě[": 89687, "æĢĿæĥ³çļĦ": 110375, ".pg": 86124, "bite": 89193, "ĠDevices": 40155, "Ġowners": 7824, "ĠÑĥÐºÑĢÐµ": 150179, "å¯¹æľªæĿ¥": 122993, "çĨ": 99079, "äºĭçī©": 104581, "().\"": 73329, "ĠÐ´ÑĥÐ¼Ð°ÑĤÑĮ": 150323, "Ġtrom": 64070, "203": 121755, "ĠGotham": 73308, "Ġdividends": 54894, "oting": 11514, "-ob": 91672, "Discover": 49683, "ĠAttention": 61585, ")|(": 54808, "åĴĮæĶ¿æ²»": 120850, "åĲĮä¼´": 112931, "Ġwhole": 4361, "Ġ%{": 63283, "Ġdeporte": 147136, "==": 418, "ç¬ĥ": 113019, "ĠBevÃ¶lker": 150546, "Ġfueron": 66657, "ĠKohana": 81991, "ĠÐ¼Ð¾Ð´ÐµÐ»ÑĮ": 132841, "ĠkÄ±s": 144898, "ðŁĺł": 152368, "Ġwashing": 27593, "ĠStuff": 45217, "ĠResidential": 54092, "çĿģå¼Ģ": 121076, "Ġtubing": 73328, "city": 8923, "àµį": 72011, "è¢«è®¤ä¸ºæĺ¯": 116451, "Ð°ÑĢÐµ": 137575, "_Bool": 79306, "URIComponent": 36468, "-do": 29447, "é¡½åĽº": 122271, "ĠØ®Ø§Ùħ": 139038, "_produk": 80098, ".Book": 54883, "Ġanomal": 69056, "éħ¸": 99464, "éĢīæ°ĳ": 125392, "ĠÐ²Ð¸Ð½": 133230, "Ġtong": 21315, "Ġbottleneck": 87110, "ammable": 98268, "âĽĹ": 154779, "_lin": 24531, "igious": 22098, "ĠÐ±ÑĥÐ¼Ð°Ð³Ð¸": 144451, "_through": 86674, "ä¸¤ä¾§": 105592, "Ġbort": 147818, "ĠPERF": 77749, "Ġ\"-\",": 76606, "fib": 74731, "ollower": 28929, "çī¹ç§į": 107373, "Ġwichtigsten": 144302, "Ġmerger": 45734, "Ġbrands": 15709, "gars": 62950, "Î»ÎµÏħÏĦÎ±": 147697, "cker": 15148, "(unsigned": 12260, "UDA": 31160, "ĠGSL": 96550, "èĢģå©Ĩ": 103575, "ĠCody": 56895, "])(": 43326, "ĠRoma": 45232, "ÐĮ": 152739, "å«©çļĦ": 126136, "Transformation": 63802, "Wik": 82827, "ä¸Ĭæĸ°": 119710, "éĴĵé±¼å²Ľ": 127466, "æĺİä»£": 110029, "Ġdebuted": 56701, "Ġwork": 975, "-Sah": 91341, "èĻĶè¯ļ": 121284, "ATEST": 61234, "çļĦåĳ³éģĵ": 108680, "ĠOld": 10616, "uyá»ĩn": 131465, "Ġgint": 48170, "Ġpodido": 148368, "-story": 44833, "ÇĬ": 153072, "progress": 14356, "ĠsetContent": 67764, "Ġä»İèĢĮ": 105505, "Ã¡i": 128265, "ä¹ĭäºİ": 114708, "ĠìĦľ": 89118, "Ġtendencies": 60034, "Ġ\")\";Ċ": 45872, "Lang": 26142, "Â»:": 135861, "å½±åĵįåĬĽ": 105924, "Ġlak": 92899, "çī¢": 101341, "generated": 16173, "ĉpage": 35097, "Ġslapped": 71240, "ĠÑĤÑĢÐ°Ð´Ð¸": 130815, "Binder": 43802, ",unsigned": 57033, "ĠÐ¸ÑģÐ¿ÑĭÑĤ": 131984, "Ġmundial": 96274, "Ġcanti": 131710, "ĠManor": 69429, "ÏģÎ®": 130851, "Ġbelum": 90006, "(v": 3747, "éĺ²": 98800, "ÐµÐ»ÐµÐ¼": 142040, "Ġ/.": 14741, "Ġpresentations": 37186, "æĹ¥åĩĮæĻ¨": 116286, "_writer": 28805, "(',')[": 96694, "ĠCorte": 140332, "ÅĤat": 131613, "ÑģÑĤÐ¾ÑıÑī": 146563, "anÄħ": 137487, "Ġæ²³": 124057, "Ġpermalink": 78591, "_endpoint": 36508, "Ġoffenders": 40379, "à¾±": 154086, "æıĲåĪ°": 103955, "ðŁĸ²": 152258, "æ±¡æ³¥": 117600, "()):": 77507, "Ġä¼łç»Ł": 119769, "oust": 25035, "merce": 10185, "ĠProvincia": 150740, "\\\",": 16201, "Ġutilisateur": 85808, ".Mult": 53158, "ÑĸÐ»": 132740, "ĠactiveClassName": 97294, "Command": 4062, "ĠØ´Ø¯Ùĩ": 129191, "Ġneut": 25713, "(mark": 65432, "Ġincess": 91076, "_a": 4306, "(vertices": 65312, "ãĢĭãĢģãĢĬ": 100576, "Officers": 80854, "åįģä¸ī": 101282, "Ġåĩºå¤Ħ": 113481, "Ġpathetic": 65582, "ĠLista": 52652, "å¤ļåľ°": 119018, "_GUID": 58245, "kami": 134982, "@extends": 21028, "kte": 40723, "Ġæİ¨èįĲ": 112494, ",port": 96087, "(\"\"": 38438, "Ġenforce": 28065, "ä»ĭ": 99029, "Ã¡nÃŃ": 86042, ".collections": 46773, "Ġlineno": 84397, "Ġpasado": 57029, "(vo": 75410, "ÑģÑĤÑĢÑĥÐº": 77642, "Ġíıī": 147317, "-slot": 86497, "(BitConverter": 92388, "ĠØ¬ÙĨ": 134545, "æĹ©å®ī": 122233, "ĠMCS": 92411, "åŁºçĿ£": 104538, "ĠíĻķ": 140450, "âĪĨ": 153383, "Ġtweaks": 61897, "ĠDÃ©": 49084, "lius": 85701, "Ġåħĥ": 105059, "Ġfuerzas": 147909, ".er": 96062, "ÂłÂłÂłÂłÂłÂłÂłÂł": 45180, "ãĤ¶ãĥ¼": 137550, "åħħè¡Ģ": 122908, "Ð¢ÐĲ": 132839, "æŃ£å¼ı": 100486, "_absolute": 50541, "éĩĩæł·": 108629, "LogLevel": 72116, "-standing": 55230, "Ġ$('<": 36890, "ðŁĴ©": 151993, "|(": 59598, "æĿĢä¼¤": 121930, "ĠMiner": 89170, "ÐµÐ·": 31750, "ä¸ĢäºĮ": 112289, "qual": 1751, "ĠKon": 23323, "_FN": 59704, "Ġpione": 28740, "ĠSaves": 65090, "Ġhairstyles": 88038, "Ã¤chlich": 134571, "essions": 8550, "æ¸¤": 112589, ".boost": 84360, "ĠDecorating": 96404, "ĠUser": 2657, ".createdAt": 65143, "Ġwhich": 892, "Ð¾ÑĢÑĤÐ°": 129536, "('.": 4291, "_variation": 94606, "_spacing": 62878, "Blocked": 95042, "ĠGeological": 79109, "Ġjeux": 68569, "å¾Ĺä½ı": 113954, "ĠGson": 38187, "éķ·": 112944, "sstream": 38159, ".poster": 96281, "è¡¨æĺİ": 101137, "Ġpathology": 75337, ".idea": 94274, "ä¸¤çĤ¹": 113333, "Ġ{@": 6418, "Ġvr": 35918, "cision": 54338, "ĠBers": 85562, "_selection": 23606, "wiet": 131791, "bbero": 138663, "çĪ±ä½ł": 104685, "final": 11816, "aimassage": 55574, "ĠØ¯ÙĪÙħ": 146436, ".swing": 3768, "ĠMario": 23317, "_UNIQUE": 89584, "å®īæİĴéĥ¨ç½²": 119494, "äº²çľ¼": 121394, "Ġrain": 11169, "langen": 146390, "ĠdictionaryWith": 84052, "nee": 32933, "åŃ¦åĳĺ": 103948, ".estado": 70181, "ucas": 48539, "é£İæ¹¿": 112001, "è¡£çī©": 114141, "éĥ½éĿŀå¸¸": 110376, "Choices": 88542, "{}'.": 38034, "åĿĩä¸º": 105008, "ĠÐ±Ð¾Ð»ÑĮÑĪÐ¸Ðµ": 138094, "æ¬§åĨł": 115539, "å±ŀ": 98950, "ï»¿": 3225, ">'+": 44243, "ĠgehÃ¶rt": 92315, "Ġbos": 42402, "åģļå®Į": 116220, "Ġsalvage": 71190, "Ġoy": 68837, "Ġremorse": 77430, "ĠSenator": 22219, "Ġcollapse": 18150, "Ġåħī": 108107, "Ġpotassium": 60745, "ĠHels": 148831, "å°Ĩå¥¹": 125390, "xes": 88932, ".autoconfigure": 45842, "[[": 15493, "Ġanimator": 38834, "ÐµÐ½ÑĨÐ¸Ð°Ð»ÑĮ": 147047, "hma": 40131, "Ġpid": 14803, "FRING": 23730, "QUIRES": 86068, ".rightBarButtonItem": 92137, "!',": 38484, ".mixin": 92726, "ĠQuotes": 35435, "ĠSIP": 64964, "Ġalcance": 147965, "Ġrealism": 68271, "Ġshowcased": 82076, "Ġregel": 132597, "nent": 132094, "ategori": 31104, "Ò§": 152827, "magic": 37257, "pheres": 64166, "ĠVirus": 63534, "gesetz": 138988, "é¦ħ": 106089, ".cb": 34585, "å¤©æīį": 109154, "ĠÑĤÐ¾Ð²Ð°ÑĢÐ°": 133159, "ĠÑģÐ»ÑĥÑĩ": 88387, "æĦıæĸĻ": 114055, "ĠgetS": 73110, "Ġruby": 44939, "ĠaÃºn": 76937, "nach": 134390, "å¹´åĩºçĶŁ": 118171, "ä¼¦": 100277, "å¼Ģ": 98388, "Ġdagegen": 148658, "ĠÑĥÐ¼ÐµÐ½ÑĮÑĪ": 132422, "å·¥èīº": 100824, ",value": 33015, "ĠÑģÐ»Ð¾Ð¶Ð½Ð¾": 135807, "çİ°éĺ¶æ®µ": 113894, "ultÃ©": 149305, "clause": 81409, "_without": 39688, "ÑĢÐµÑģÐ°": 145333, "QP": 66036, "_ATOM": 96542, "_From": 52804, "/native": 74594, "éĤµ": 106595, "\"),ĊĊ": 65494, "ĠopÃ§Ã£o": 148845, "limit": 9502, "æ²Ļé¾Ļ": 117299, "]ï¼Į": 112442, "Ġ(_)": 55765, "è£ħæľī": 120059, "Ġflat": 10058, "ĠcloseButton": 87582, "Ġlateinit": 26049, "âĪĵ": 153393, "Ġshipped": 27170, "Ġrear": 14629, "utebol": 147385, "ĠÐ²Ð¶Ðµ": 142619, "å·¥ä½ľä»»åĬ¡": 122051, "Ġmetavar": 50881, "ĠÐ¾Ð±Ð¾Ð·Ð½Ð°Ñĩ": 138687, ".org": 2659, "è¿½æį§": 118053, "ĠEinzel": 136188, "Ġmaxlength": 29350, "ĠLim": 13580, "ĠMineral": 48999, "_Write": 31692, "èĪįåĪ©": 126675, "-aos": 64370, "ĠÎ¬": 129067, "Ġfaisant": 145078, "psilon": 59476, "ĠBrush": 32831, "à§ļ": 152691, "æĥħåĨµ": 98962, "lerden": 141133, "-overlay": 51156, "ĠFortnite": 85702, "hÃ©": 132746, "aphrag": 93999, "recision": 21032, "_deploy": 91119, "äººæľī": 111817, "ä¸ļæľīéĻĲåħ¬åı¸": 107991, "ĠApiResponse": 70759, "æĮĤçīĮ": 107086, "Ġraise": 4828, "Ø°ÙĦÙĥ": 131973, "ĠStored": 92998, "èĢĮè¨Ģ": 101023, "å¹¶æıĲåĩº": 122072, "Ġngu": 135259, "stoffe": 147287, "ĠAsian": 14523, "ÃĦ": 86255, "ç½ªæģ¶": 118398, "ĠBaum": 81545, "Ġyar": 132157, "Ð½Ñĥ": 127548, "Ġdragging": 42134, "ĠEncyclopedia": 66609, ".Nil": 59264, "Pro": 1336, "targets": 45278, "disposed": 74930, "ĠDNC": 51624, "Joe": 40122, "Ġ\\<": 4444, "-Agent": 44852, "marine": 83748, "ãģªãģ©": 128493, "tadÄ±r": 132784, "'})Ċ": 26299, "ertas": 52086, "ĠSWT": 46412, "Ġbrut": 19367, "éŁ³ä¹ĲçļĦ": 118805, "Ġçĭ¬": 125901, "ĠSTEM": 62634, "æ§Ľ": 107153, "discussion": 69348, "Ð°ÑĤÐ¸": 127826, "å¾ģåľ°": 118911, "unas": 57866, "Ġidade": 65485, "ĠGron": 85517, "æĪĺæľº": 116570, "è¡ĮæĶ¿ä¸»ç®¡éĥ¨éĹ¨": 113168, "setzung": 145638, "Ġstrengthens": 95026, "Comput": 57626, "Ġadversary": 80737, "ĠWeise": 136840, "ĠEat": 44256, "ç°": 103152, "ANCE": 8439, "Ġdesea": 82871, "ĠFit": 29774, "ä»İè¿Ļä¸ª": 113248, "SYS": 37735, ".Lerp": 63873, "Ġderby": 89920, "æĪĲåĵģ": 108813, "(Sub": 98067, "ĠÑĢÑıÐ´Ð°": 142703, "_,Ċ": 38179, "Dic": 44287, "Ġnurturing": 83119, "ĠMate": 43321, "Ãĵ": 38852, "sil": 34631, "Ġreduction": 13942, "Ġappreciated": 25727, "_ALIGN": 36497, "/in": 17968, "Ġfueled": 57963, "æĭįåĪ°": 126669, "urtles": 50779, "privileged": 96472, "FD": 14586, "abad": 27258, "realloc": 80926, "Forgot": 69847, "Ġefficient": 11045, "çİĩé«ĺ": 116724, "usch": 50743, "è§ĤæľĽ": 118241, "uttaa": 149277, "km": 16004, "å¸¦åŃ©åŃĲ": 117367, "imity": 30809, "Ġforever": 15671, "NODE": 40461, "_CL": 6843, "íĺķ": 141602, "ĉfprintf": 16153, "Ġ{});Ċ": 35136, "ĠeconÃ³m": 71985, "_INFORMATION": 52772, "$date": 55982, "Ġminut": 80708, "ĠFri": 30285, "woods": 80372, "ĠÐ·Ð°Ð½Ð¸Ð¼Ð°ÐµÑĤÑģÑı": 145376, "-income": 30971, "Ġsotto": 94443, "ĠACL": 43212, "Ó³": 152903, "DEFAULT": 17264, "ä»ķ": 107058, "Ord": 24546, "entries": 12933, "æĸĩæľ¬": 103231, "å°¤åħ¶åľ¨": 120001, "Ġquotation": 53869, "_ask": 91495, "Ġseiner": 53577, "_IDENTIFIER": 49237, "Ð¹ÑĤ": 129908, "%ï¼Ľ": 103077, "Ġdebates": 36350, "Ġcookie": 12538, ",None": 66148, "made": 26825, "ĥn": 128194, "ours": 2471, "Allows": 78956, "ĠGrande": 36338, "ĠÐ¿ÑĢÐ¾Ð´Ð°Ð²": 134295, "Ġime": 73851, "_delete": 11348, "czy": 47475, "Ï§": 153353, "ĠChris": 11261, "ĠUnified": 71879, "Ġfrozen": 19653, "ĠHolmes": 39089, "Ġjsme": 133996, "Ġl": 326, "Aware": 58387, "ĠÄĳa": 135079, "Ġpull": 6815, "ĠLobby": 62521, "æĭĮåĮĢ": 106772, "(conv": 54626, "ĠWordPress": 19769, "@include": 55996, "ä¸İåģ¥åº·": 125521, "ĠMediaType": 50093, "åĽ¾çº¸": 114846, "Ġknit": 51762, "_CLASS": 13726, "åĨ·èĹı": 114268, "\\Migration": 31480, "ĠGast": 62201, "åīªåĪĢ": 122723, ".medium": 83671, "_create": 8656, "Ġpests": 74367, "Ġfoundations": 40260, "ĠHogan": 56884, "(([": 54913, "ä¸ģ": 100376, "Ã£os": 142179, "Ġduck": 35804, "ĉĉĠĠĠĠĠĠĠĠĠĠĠĠĠĠĠ": 45977, "èĬĤçĽ®çļĦ": 117702, "Ġappell": 51610, "GBT": 21187, "æĹłæįŁ": 126473, "ĠAcademy": 15803, "åľ¨åŃ¦ä¹ł": 112836, "âĹĸ": 154528, "Ġfract": 26517, "typedef": 5286, "(info": 14199, "/Subthreshold": 57448, "éĺ®": 110011, "åı¯ä»¥çļĦ": 124105, "éĺħ": 99828, "å¿±": 123043, "_BYTES": 40480, "ĠCont": 2093, "è°ĭæĿĢ": 120731, "retched": 61304, "Cerrar": 78795, "áģļ": 153746, "Ġplayoff": 19344, "=form": 51036, "ĠDaddy": 53090, "ä¸īåįģ": 104171, "merksam": 145942, "Ġlowered": 38612, "TARGET": 45314, "NET": 15361, "-money": 67498, ",u": 36692, "Ġ\"/\"": 16872, "à¹Ļ": 153250, "ÍĹ": 151543, "Fetch": 20671, "chu": 65273, "Ġcrafted": 33297, "Ġcid": 31997, "abouts": 62850, "idata": 80423, "ĠSEN": 84111, "Ġrequiring": 22643, "ê²ĥ": 146478, "å¾®": 98996, "ĠVeranstaltungen": 149629, "ipzig": 55821, "Ġeffortless": 78456, "apollo": 53253, "Úł": 152524, "ĠØ§ÙĦÙħØº": 141416, "ĠOsc": 55262, "éĢļè¿ĩçļĦ": 126112, "SIG": 50299, "åĪ¶éĢł": 100257, "LOPT": 20048, "åģļå¥½äºĨ": 116072, "\\\"": 2105, "Ġsubstitutions": 92864, "Ġobjs": 52587, "ĠPreparedStatement": 41821, "âĢĻy": 89571, "åįķä½įåĴĮ": 119792, "æľīåĲįçļĦ": 122023, "Ġapopt": 82259, "Bob": 32242, "Ġberg": 45613, "å«Į": 101770, "ä¸İæľ¬": 124722, ".TextInput": 74172, "_pw": 59763, "Ġgenaus": 146921, "ĠÐ¿ÐµÑĢÐµÑģ": 134560, "Ġfaded": 52980, "Ġdal": 24662, "Ġconjunction": 31315, "_demand": 90533, "ÒĴ": 152806, "2007": 102469, "Ġpronounce": 87253, "ensure": 27200, ">{$": 69524, ",top": 85751, "ä¸įåıĬæĹ¶": 124160, "åĮ¡": 117248, "AF": 8275, "ç£ģæĢ§": 127365, "Ġ_|": 84437, "koa": 87557, "ĠØ§ÙĦÙħØ±": 133129, "å¤ķéĺ³": 113101, "áŀµ": 154218, "ĠSF": 23398, "ðŁĴļ": 151978, "Ġways": 5510, "à§¯": 152712, "wd": 6377, "longitude": 25368, "ĠÐ²Ð¾Ð·Ð½Ð¸Ðº": 130741, "Ġllev": 52842, "</arg_key>": 154848, "ĠÑģÑįÐºÐ¾Ð½Ð¾Ð¼": 149579, "');\"": 84890, "ðŁĸ¨": 152248, "ĠÐ°Ð³": 129675, "elseif": 25935, "/javascript": 9832, "ĠĠĠĠĠĠĠĠĠĠĠĠĠĠĠĠĠĠĠĠĠĠĠĠĠĠĠĠĠĠĠĠĠĠĠĠĠĠĠĠ": 12835, "exampleModalLabel": 81725, "æ·±åħ¥å¼Ģå±ķ": 114733, "Ġclearing": 32598, "Ġcapturing": 39564, "ç»´å¥ĩ": 113925, ".WaitFor": 98311, "Of": 2124, "ç»ĻæĪĳ": 101383, "ĉsleep": 52187, "usband": 90223, "_surf": 87591, "ĠÐ¿Ð¾Ð´Ð°ÑĩÐ¸": 146715, ".eu": 34829, "Ġcorpses": 71564, "Ġè¿ĳæĹ¥": 116431, "æıĴåĽ¾": 125099, "ĠMET": 36631, "ĠPrescription": 75471, "Ġpeople": 1251, "çĴŀ": 126647, "-born": 38949, ".Lib": 85568, ".erase": 25313, "å°¤åħ¶": 100394, "Ġrede": 30048, "ĠSTE": 26414, "uppercase": 79240, "Ġê²°ê³¼": 97963, "éĢģå¾Ģ": 121383, "had": 31114, "$:": 62106, "ä¸ĭåĽ¾": 121400, "ä»ĭäºİ": 122368, "orauss": 138529, "MAKE": 46792, "ĠmHandler": 82177, "ucha": 54019, "ĠpaÃŃses": 70345, "ĠJou": 95242, "ĠÑĢÐ°Ð¼": 130306, "å°ģéĿ¢": 110404, ";čĊčĊčĊ": 22310, "ä¸ĩéĩĮ": 108954, "Ġflew": 30896, "ĠDocker": 40326, "==============": 38395, "ĠÐ±Ð»": 89548, "igated": 81564, "ETHOD": 8757, "geries": 59968, "å±ĳ": 106138, "lad": 18079, "Ã³i": 133458, "éģĵåħī": 124781, "Ġchocolates": 98110, "ĠÙĪÙħ": 130311, "è¦ĥ": 126352, "Ġcriminal": 9155, ".intro": 89644, "á»Ļ": 37482, "åĢ¾åĲ¬": 109332, "æĬµæĮ¡": 126452, "Ġblaming": 58267, "Multi": 20317, "Ġfputs": 76423, "imi": 24760, "Ú¼": 152550, "Timer": 10100, "ĠLSU": 63949, "æģĭäºº": 112872, "ĠValueError": 15390, "%!": 88679, "åīįè¿Ľ": 104944, "ĠhÃºt": 141015, "_IMPORT": 20977, "(['": 6425, "_watch": 58159, "ĠÐ¾Ð±Ð·": 144051, "Ġpresently": 49383, "builtin": 42214, "iments": 12552, "ĠDigest": 52935, ".LayoutInflater": 26164, "é¢Ĭ": 112380, "ĠÃ§ek": 135112, "Ġè¿Ļæĺ¯ä¸Ģä¸ª": 114471, "/profile": 23515, "Ġpersuasion": 96310, "Ġbulunan": 140047, "ĠÐ¿Ð¾Ð¼Ð¾ÑīÐ¸": 130822, "quiry": 17321, "_cat": 20779, "Ġdetainees": 66446, "_cycles": 68467, "ĠGER": 88481, "_BACKGROUND": 69604, "lero": 64834, ".bukkit": 28268, "PX": 73238, "pliant": 59437, "ussions": 38525, "Ð²Ð¸Ð·": 143963, "formatter": 32785, "Ġglaciers": 93893, "ä¸İçİ°å®ŀ": 127053, "ĠBrook": 15593, "ĠQtGui": 39425, "å®ħåŁºåľ°": 120740, "##Ċ": 22555, "_sk": 33649, "awy": 94914, "Ġ%[": 63891, "stead": 41941, "_supplier": 74839, "ĠÐ¿Ð¾ÐºÑĥÐ¿Ð°ÑĤÐµÐ»ÐµÐ¹": 145343, "ultureInfo": 52578, "Ġtotalement": 92887, "ice": 558, "ĠSamuel": 31771, "Ġgou": 91263, "Ġvacc": 13703, "forcing": 41261, "Ġpretty": 5020, ".VisualBasic": 61959, "æĮĳåīĶ": 120680, "ĠResponsible": 67136, "_EXTERNAL": 47573, "ĠÑĤÐºÐ°Ð½Ð¸": 136354, "Ġtutto": 50845, "ìŀ¬": 56748, "åĽŀåĪ°": 101620, "UIS": 28421, "Ġdilig": 38082, "è½°çĤ¸": 113844, "_WARNINGS": 83138, "Ġracer": 84136, "ðŁĺ«": 152379, "ðŁİ´": 151748, "Ġseams": 73115, "âĭ¢": 153597, "ĠToch": 144038, "Ġolmad": 141406, "_RGCTX": 60437, "Ġepochs": 39134, "Ġhaus": 69748, "inie": 142635, "é¼ĵèĪŀ": 111488, "ĠrÃ©fÃ©": 89709, "ĠÐ²ÑĭÐ¿Ð¾Ð»Ð½ÑıÑĤÑĮ": 142022, "Ġreunion": 56897, "Ġnacionales": 148901, "Ġhinge": 74994, "Sent": 31227, "itating": 49227, "ĠÐĶ": 38595, "ĠHin": 49315, "ĠVeter": 25665, "(head": 25262, "_dem": 68890, "âĽĽ": 154783, "Ġlog": 1487, "ĠÄĲ": 50003, "ystems": 93993, "à½µ": 154026, "Ã¼ng": 141041, "agn": 3246, "(p": 1295, "æ°´è§£": 121786, "ĠiPhones": 71512, "Ġobliv": 65525, "GD": 40622, "ĠÐ¸Ð¼ÑĥÑīÐµÑģÑĤÐ²Ð°": 140507, "åºĶçĶ¨ç¨ĭåºı": 113446, "Ġglyph": 32006, "ç§įç§į": 104629, "ĠLancaster": 64647, "åĪĳäºĭæ¡Īä»¶": 125923, "Ġprotesters": 25663, "æīĢæľīçļĦ": 101699, "Vert": 6103, "_norm": 19145, "çķľ": 103668, "IMA": 72264, "æīĢèĩ´": 107882, "_note": 27118, "ØªÙĩÙħ": 139228, "Æ¢": 153034, "Ġå¹¶": 102325, "-var": 84710, "_template": 8692, "çł´åĿı": 102207, "Approval": 89363, "ĠÃ®n": 18500, "Mil": 58822, "Ġtypically": 11131, "åĬŀåħ¬åİħ": 109111, "Ġuno": 23828, "ĠLargest": 82629, "ĠThank": 9727, "signIn": 60321, ".userId": 24645, "ĠPad": 25221, "adecimal": 49009, "mongodb": 37003, "ĠÅ¼e": 23281, "ÙĬ": 14548, "Ġsuit": 7781, "redux": 21130, "ĠFREE": 16243, "ĠDawson": 65729, "Ġspree": 77999, "_VOL": 69890, "ĠÐºÐ»Ð°Ð²Ð¸": 145419, "_passed": 86680, "æłĩåĩĨåĴĮ": 117286, "-yellow": 72350, "ĠdÃ©veloppement": 80856, "Ġdiscussing": 24319, "Ġhem": 17259, "ä¸įåĲĮäºİ": 108888, "_constraint": 46683, "\\Id": 80306, "æĿ¡çļĦ": 127453, "Ġcelebrates": 47791, "çľŁçĲĨ": 107488, "ĠĠĠĠĠĠĠĠĉĊ": 72630, "ĠAudioManager": 95076, "AèĤ¡": 111321, "ĠTrent": 47228, "Ġtourist": 29854, "Ġflights": 24832, "ĠÐ²Ð¾Ð·Ð½Ð¸ÐºÐ½Ð¾Ð²ÐµÐ½Ð¸Ñı": 147083, "_SHAPE": 92357, "Ġsinks": 56569, "Harness": 73668, "_IC": 22899, "Ġvanaf": 145093, "æĥ¬": 115234, "_PERCENT": 71670, "ĠSwap": 43598, "éĩįç£ħ": 116686, "ĠSolo": 34949, "Ġâķ": 57811, ".position": 6187, "Ġwasher": 52542, "Ġwithheld": 75399, "ĠÑģÐ¾Ð±": 127597, "eltas": 71357, "Registro": 53440, "ç´§èº«": 123212, "çļĦæ¢¦æĥ³": 124766, ".Executor": 93703, "DataManager": 83921, "èīĺ": 106610, "Ġzon": 150327, "Ġcrime": 9773, "Ġcorto": 146949, "vana": 66967, "çľģå§Ķ": 104224, "ÑĩÐ½ÑĭÐµ": 134707, "ĠglEnd": 90296, "Ĵ": 240, "Î¹ÎºÎ¬": 130624, "ĠSensor": 29928, "ĠÑĤÑĢÐ¸": 129019, ".catch": 54267, "ĉON": 56402, "ĠSalary": 41522, "éħ·": 102140, "å¤¹æĿĤ": 123685, "ä¸ĭä¸Ģä¸ª": 107870, "Ġ.....": 66640, "Ġni": 12782, "Ġpartic": 2536, "_shift": 22174, "ĠCraw": 43416, "ĠÑĩÑĥÐ²": 129404, "Ġns": 12262, ".toUpperCase": 32160, "OLS": 40042, "Ġmarriage": 10861, "å£°": 98960, "Ġpacking": 35535, "(headers": 53666, "ĠFree": 3574, "igslist": 48613, "Ġreviewed": 21872, "ĠColumbia": 18763, "Ġmonsters": 25707, "acles": 18180, "yet": 46112, "ĠNach": 28178, "(lon": 88686, "ĠContainer": 9674, "ĠJohann": 87136, "åķ": 27120, "(std": 5194, "Íĺ": 151544, "Ġinterrupts": 43188, "...ĊĊ": 2146, "ĠĠĠĠĠĠĠĠĠĠĠĠĠĠĠĠĠĠĠĠĠĠĠĠĠĠĠĠĠĠĠĠĠĠĠĠ": 10584, "ife": 1612, "Ġmerci": 139507, "Ġ{-": 29556, "Ġlimb": 47301, "Ġregenerated": 69829, "äº®çļĦ": 108784, "ï¼Łï¼Łï¼Ł": 117741, "Ġpeoples": 31307, "å²¡": 140335, "åľ£è¯ŀ": 107727, "Ġportrait": 32876, "ecraft": 144178, "Ġmerged": 25920, "ĠDu": 15675, ".DataGridViewCellStyle": 50058, "Battle": 42648, "etsy": 62186, "ĠCopenhagen": 62616, "ĠÐ¾Ð´Ð½Ð¾Ð¼": 132915, "ĠMÃ¶glichkeiten": 138578, "ĠHashSet": 18897, "Ġinoltre": 142680, "Month": 11313, "ãĥ¯ãĥ¼ãĤ¯": 145724, "Desde": 83537, "ĠÐ¸Ð½ÑĦ": 130177, "æľīçļĦæĺ¯": 117727, "ĠVerd": 91928, "Cpp": 9885, "takes": 77353, "TYPES": 97218, "æłĩçŃ¾": 104172, "timas": 136284, "Ġsire": 85203, "helpers": 21671, ")`Ċ": 48921, "foregroundColor": 80487, "Downloads": 49460, "ĠMunicipal": 43984, ".CLIENT": 71928, "OAD": 50201, "Ġeffetti": 146528, "ĠSTREET": 83866, "åŃĲåľ¨": 127221, "PUT": 6221, "illion": 14716, "ellow": 5299, "ĠÃ©xito": 80230, "(vol": 97327, "çĶ·å£«": 114670, "&quot": 28657, "pada": 140191, "realm": 69376, "ĠcategoryName": 88869, "à¥Ĺ": 151417, "ĠCanal": 52302, "ĠSchule": 138774, "åĽŀå¤´": 105425, "ĠCAN": 19471, "Ġchops": 89334, ".Quit": 95027, "usement": 42421, "ĠApplicationController": 30812, "znego": 140523, "jang": 37332, "ĠØ§ÙĦÙħØª": 129934, "ĠÐºÐ°ÑĢÑĮ": 147894, "Ð¾Ð»Ð½Ð¸ÑĤÐµÐ»ÑĮ": 128859, "Ġcombo": 22673, "ĠFortunately": 41201, "Û¢": 152587, "Ġcompeti": 132944, "ĠÐ¿ÐµÑĢÐµÐ¼ÐµÑī": 142891, "ĠVARIABLE": 53931, "Ġinten": 129765, "åĲĥå®Į": 109899, "Ġautores": 146673, "âĺł": 154600, "ÃŃas": 24255, "ĠBoutique": 89373, "Lng": 17921, "GuidId": 87443, "Regarding": 83830, "ĠMarion": 55206, "ĠÃ©lectrique": 141344, "ĠShed": 93656, "ĠClaudia": 79414, "Ġtelevis": 89223, "ç«ĻçļĦ": 113594, "Ġbending": 56734, "().__": 26421, "Ġtraz": 150892, "Ġenzymes": 54598, "ĠØ¬ÙħØ¹": 137925, "æľ¯": 98532, "âĢĶare": 82088, "Ġ2005": 107762, "Ġguidelines": 17477, "LAN": 23343, "ÏĦÎ¿": 127564, "ä¸Ģä½ĵåĮĸ": 105421, "ToolStrip": 15547, "udd": 8346, "ĠVisible": 69772, "ĠPdf": 28053, "ĠMOM": 92192, "-spec": 57399, "Ġfestiv": 149721, "å®¶ä½ı": 125791, "Pets": 84289, "ĠNavParams": 75296, "áŁī": 154237, "delete": 4542, "æĿ": 13940, "tp": 790, "Ã©ments": 97015, "_playing": 83165, "stdbool": 62116, "Ġrespuesta": 43111, "tuk": 143264, "Ġdedicated": 12229, "lesson": 27403, "ä¸ºé¦ĸ": 116097, "HOST": 28585, "Ġdiagn": 13183, "é¢ĺ": 98496, "æĺİ": 98478, "ĠComitÃ©": 145741, "NFL": 86380, "Ã¢m": 86009, "Ġaccomplishment": 59720, "ĠPhones": 83880, "Ġtej": 61546, ".Word": 64494, "Ġmohou": 149093, "Ð¾Ð»ÑĮÑĪÐµ": 134524, "Ġcontributed": 19553, "_PEER": 91963, "ç¾İåĳ³çļĦ": 126116, "asan": 45119, "æĸĩçī©ä¿ĿæĬ¤": 112933, "Ġcram": 98240, "æĸŃéĿ¢": 116692, ".Optional": 36180, ".lines": 43808, "ĠAssets": 40414, "ĠTues": 82001, "(timeout": 38757, "geving": 142260, "learning": 20934, "isbn": 65954, "=temp": 53125, "ĠPopup": 45911, "hÃ¤lt": 131905, "ä¸ĸä¸Ĭ": 111313, "ĠWeak": 40933, "Cloud": 16041, "isplay": 2316, "ĠÐºÐ»Ðµ": 139958, "_large": 44960, "Ġmidway": 81478, "Ali": 17637, "Occup": 63510, "æĬķèŀįèµĦ": 122943, "Ġ'}';Ċ": 57560, "ç»Ļå®ĥ": 122837, "Ġcorrection": 26180, "Ã¶ss": 136857, ".UndefOr": 32511, "Ġpractitioner": 54010, "äº¿ç¾İåħĥçļĦ": 125746, "à¸¦": 153220, "(Texture": 78287, "ĠMÃ¡": 138821, "Dirty": 36300, "ĠÑĢÐ¾Ð±": 131269, "å¾Īå¤ļæĹ¶åĢĻ": 108652, "OLF": 85307, "ĉJPanel": 89480, "ĠChelsea": 26433, ".Matrix": 60010, ".\"</": 39876, "Ġconexao": 97050, "ĠÑģÐ²Ð¾Ð±Ð¾Ð´Ñĭ": 148303, "-compatible": 79569, "Ġorganizing": 34549, "áŀĲ": 154181, "edm": 88784, "è¡¨æ¼Ķ": 101839, ":!": 97493, "Ġbothers": 80692, "Ġmourning": 74656, ".Dispose": 12929, "stantiateViewController": 82099, "RouterModule": 43781, "rous": 26437, "Living": 44247, "èĲ½çļĦ": 108657, ".Documents": 54614, "ĠÐ²Ð¾ÑģÐ¿ÑĢÐ¸": 136591, "distinct": 52671, ".Include": 55155, "isions": 6805, "+'\\": 60958, "è´¢çī©": 113207, "Ġcalculation": 21883, "Ġsegments": 20589, "éĢļçļĦ": 126367, "Ġsouff": 140374, "ĠrÄĥ": 137589, "Ġbourgeois": 51973, "Ġbambini": 138057, "Ġp": 281, "Ġobservations": 23656, "Official": 33733, "TA": 15192, "æ²Ļæĭī": 121899, "éĻĲæĹ¶": 121803, "ÐĿÐĺÐ¯": 145427, "Legacy": 76797, "Ġgeneration": 9467, "ĠEating": 59124, ".prod": 54345, "Ġenterprises": 39603, "ĠmitÃ¤": 150849, "#define": 1441, "Ġexcep": 137344, "æĽ´æĺ¯": 101019, "åĳ¨ä¸Ģ": 109714, "Ġbustling": 88417, "åºĶçĶ¨äºİ": 106123, "Ġdub": 22058, "èĦ±é¢ĸèĢĮåĩº": 117155, "$key": 67913, "Day": 10154, "çļĦå·®å¼Ĥ": 126462, ".references": 61993, "ĠÑģÐ¾Ð±ÑĭÑĤÐ¸Ð¹": 139501, "(th": 24292, "è¿Ļå°±æĺ¯": 102089, "Ġà°": 92473, ".hom": 93201, "çĶ¨æĪ·çļĦ": 107961, "Ġpoliceman": 77951, "ä¸ºåįķä½į": 118933, "åĩłä¹İæ²¡æľī": 114382, "Calculate": 47568, "aute": 131413, "<System": 30600, "èŀ¨": 122562, "åĩıçģ¾": 119132, "çļĦäººåĳĺ": 106422, "ç¡¬åĮĸ": 107632, "ĠSizes": 69658, "Ġcurt": 42933, "åĲĮæĦı": 102574, "_fold": 60757, "çļĦæīĭæ®µ": 117543, "(nullable": 34711, "ĠsetSupportActionBar": 82359, ".Application": 17497, "è¯Ńå½ķ": 121627, "container": 3586, "CONDITION": 82996, "):ĊĊ": 7731, "NoArgsConstructor": 64549, "ç¥ĸåĽ½": 104457, "eniable": 78180, "Ġsg": 30553, "_Abstract": 73792, "eller": 7073, "isk": 3187, "ĠdÃŃas": 44814, "Miller": 87605, "ĠÑıÑĢÐº": 145425, "Deleted": 25958, "Ġeerie": 95476, "Ġhue": 38830, "ategorie": 37279, "ĠÐµÐ²ÑĢÐ¾Ð¿ÐµÐ¹": 134258, ".Utils": 24036, "ĠIOException": 9343, "çĲ´": 101396, "Ġ{}": 4687, "æķħéļľ": 103150, "thesized": 82193, "_FALL": 83270, ")==": 15336, "ĠMitarbeiter": 95619, "dtype": 47432, "Ġduo": 33559, "Ġdenk": 143311, "sha": 15235, "çī¹å®ļçļĦ": 109029, "dale": 34018, "ĠExtreme": 49078, "dna": 92098, "(Constructor": 90436, "Responsive": 78165, "ĠpÅĻÃŃpad": 138508, "Ġ['#": 89340, "åįļè§Ī": 107685, ".CharField": 12633, "double": 4331, "Ġartikel": 88114, "Ġdiscriminate": 59029, "ĠÐ´ÐµÐ»Ð°ÑĤÑĮ": 129598, "ç»Łè®¡åŃ¦": 104487, "å¯¼èĩ´": 99704, "ĠØ¹ÙĦÙĬÙĩØ§": 141192, "åĬªåĬĽåŃ¦ä¹ł": 124982, "ĠBaden": 148830, "ĠÐ³ÑĢÑĥÐ´Ð¸": 148056, "ouden": 67035, "äºĨåĳ¢": 112226, "Accessibility": 84664, "aleigh": 54464, "Ġ=>čĊ": 48364, "=add": 92005, "å¥½å¤ļ": 105685, "ĠÐ¿ÑĢÐ¸ÐµÐ¼Ð°": 138202, "ĠGandhi": 47593, "ando": 4883, "camp": 25160, "ĠÎľÎ±": 141454, "Link": 3939, "Ġflattened": 66870, "Ã¥ng": 130802, "-ion": 79105, "å°ıéķĩ": 106648, "ĠCali": 138290, "Ġare": 525, "æ²³åĮĹ": 101872, "(eventName": 85138, "ĠÐºÑĢÑĥÐ³Ð»": 136520, "NSMutable": 18762, "Ġfeatures": 4419, "æŀģåĵģ": 123646, "TC": 7749, "å®īåħ¨çĶŁäº§": 102584, "Move": 9855, "ĉA": 22924, "Ġçİ¯å¢ĥ": 118520, "ÐĿÐ°Ð¿Ð¾Ð¼Ð½Ð¸Ð¼": 146646, "ĠtháºŃt": 133212, "_on": 4470, "/>čĊ": 48223, "Ġcomunica": 135967, "Ġtouchdown": 24951, "ĠcomponentDid": 23741, "uir": 20865, "Productos": 86296, "Ġkrijgen": 140147, "Ġpouco": 82152, "ĠIHttp": 72948, "éĩį": 98429, "ĠÐ´Ð¾Ð±Ñĭ": 138602, "å¿ł": 101067, "Ġisso": 40580, "ĠDO": 9316, "ĠÐ´Ð°Ð½": 96679, "Ġfd": 12408, "ĠCH": 6826, "ØºØ§ÙĨ": 151321, ".Tween": 73669, "ĠGraphics": 20255, "ĠIncluded": 45687, "ÑĸÐ½Ð½Ñı": 137995, "Ġinvaluable": 54724, "ãĤĹ": 153647, "membership": 68817, "Colorado": 76850, "ĠÐºÐ¾Ð¼Ð¿ÑĮÑİÑĤÐµÑĢ": 134030, "æ¶Īæ¯Ĵ": 104009, "Ġpieds": 151159, "æĪĳç»Īäºİ": 123319, "å®ĩ": 100457, "Ġfundamentally": 42249, "Ġdispositivo": 94202, "try": 1539, "//!Ċ": 51412, "ĠÑģÐµÐ·Ð¾Ð½Ð°": 140987, "vÃ©ny": 137278, "ĠÐŀÑģÐ½Ð¾Ð²": 133027, "stand": 2685, "Ġracist": 24138, "Dur": 52683, "<SpriteRenderer": 76790, "Ġwithstand": 50141, "ĠSAY": 83933, "ĠTransmission": 46735, "hetto": 75635, "={},": 66933, "ĠSpell": 28973, "å±±æ°´": 105390, "ç©¿æĪ´": 121088, "Ġcerts": 73824, "generic": 35608, "dv": 37067, "Ġsacrifices": 56540, "âĽ¢": 154790, "åĮĹæŀģ": 116773, "tan": 52245, "ession": 1338, "è¿Ľé£Ł": 112991, "Allow": 18572, "Ġmemiliki": 70598, "suppress": 96149, "ĠØ¯ÙĪÙĦØ§Ø±": 149920, ".ad": 11634, "Ġbroaden": 82923, "ç´§å¯Ĩ": 104484, "wa": 9986, "Ġdenies": 46205, "è¯»æľ¬": 127011, "Ġchecklist": 52227, "gba": 56000, "ìĿ´ëĿ¼": 136664, "_squared": 54276, "Hell": 79647, "èĥĮ": 99352, "HasColumnType": 75650, "è½¯ä»¶": 100283, "èĴĤ": 101812, "è¶ħè¶ĬäºĨ": 125812, "æįŁä¼¤": 102930, "ç¬ĳè¯Ŀ": 109971, "_roll": 57185, "ĠViewChild": 68009, "ĠArtist": 28260, "ĠÐ²Ð¾Ð»Ð¾ÑģÑĭ": 136376, "ç¯ĩæĸĩç«ł": 105804, "Ġcombin": 66636, "è½»è½»åľ°": 122978, "çļĦç©ºéĹ´": 106194, "Ġlobbyist": 89720, "swire": 79084, "Cer": 149950, "Ġ-$": 81680, "do": 2982, "Telegram": 71690, "Ġgleich": 54878, "ĠÑĥÐ´Ð°Ð»Ð¾ÑģÑĮ": 135177, "Ðĺ": 30057, "_clock": 23000, "ĠÐ¾Ð´Ð½Ð°ÐºÐ¾": 131694, "ĠASCII": 39104, "Ġoranges": 83346, "Ġarithmetic": 34612, "å¤ªå®Ĺ": 121430, "Ġdijo": 64436, "Methods": 17830, "ternal": 15330, "ype": 499, "ĠÐĴÐ¡": 145968, "[level": 64119, "Ġloung": 82455, "ĠÐ´ÐµÐ¼Ð¾Ð½": 135478, "ortun": 129166, "ĠluaL": 72171, "åĸĿäºĨ": 117077, "ĠCleaning": 46368, "Ġcracks": 44602, "Ġrn": 55464, "Ġabsorbs": 89267, "FIXME": 80362, "æĻĵ": 100549, ".WebElement": 89050, ".Any": 13303, "enten": 128546, "ĠMech": 89749, "ĠÑĦÐ¸Ð»ÑĮÐ¼Ð°": 141294, "seite": 60637, "ĠFir": 78610, "ĠÑģÑĤÐµÐºÐ»Ð¾": 150207, "ĠSlave": 58956, "$self": 67083, ")):čĊ": 39534, "ðŁķľ": 152172, ".validators": 82044, "Ġpsychiatrist": 72308, "Ġinability": 37256, "Ant": 17098, "sit": 46577, "ser": 799, "æľĢåĪĿçļĦ": 114449, "ĠÐ¿ÑĢÐ¸Ð»Ð¾Ð¶": 130515, "Ú©ÙĨÙĨØ¯": 141123, "losen": 149396, "ĠCare": 10622, "Ġjejich": 137674, "ÏĥÎµÎ¹": 128376, "Ġmaturity": 46870, "èģĨ": 109446, "åıĳçİ°çļĦ": 111312, "è¿Ľåıĸ": 108311, "Ð»ÐµÐ½Ð½ÑĭÐ¹": 134419, ".Toast": 28611, "æľīéĻĲåħĥ": 124017, "ierarchy": 33717, "!I": 89748, "duck": 72408, ",p": 7237, "129": 117305, ".learning": 65124, "ĠCGFloat": 15919, ".Hour": 72979, "ĠÑģÑĥÐ¼Ð¼Ñĥ": 135098, "ĠÄĲáº¡i": 136711, "idders": 98287, "Ġpij": 64758, "For": 2461, "ĠSlayer": 74038, "ĠæĹħæ¸¸": 121573, "å°¤åħ¶æĺ¯": 101280, "ĠLaws": 40759, "ĠÑĤÑĥÑĢÐ¸ÑģÑĤ": 132762, "=null": 18877, "ĠAcquisition": 71816, "å¤©å±±": 127339, "ĠÐ°Ð²ÑĤÐ¾Ð¼Ð¾Ð±Ð¸Ð»Ñı": 132612, ".Timeout": 63519, "Ġbreaker": 66281, "ĠFormer": 32353, "Ġlawmaker": 69851, "enia": 57888, "çľ¨": 115282, "_PED": 80965, ".MoveNext": 86222, "atom": 21803, "oller": 68883, ".compute": 35172, "ĠUIManager": 91986, "Ġnoir": 55189, "=sc": 74287, "Ġcalm": 19264, "ĠFitz": 36487, "éģı": 110613, "ĠWort": 92720, "è¿·èĮ«": 109482, ".authService": 63372, "ĠÐ¿ÑĢÐ¾Ð¸ÑģÑħÐ¾Ð´": 135498, "Ġwarranty": 8474, "ĠPsi": 53095, "Ġaccording": 4092, "Ġsozi": 147484, "ighted": 64041, "-i": 17575, ".TRA": 39870, "AX": 2954, "Ġformulas": 53717, "èĩªå·±åģļ": 120997, "è´´å£«": 124562, "æĥ³åľ¨": 120458, "_modal": 43538, "directive": 72302, "ĠTorah": 71401, "Ġtragen": 142480, "æĺ¯ä¸Ģåº§": 117368, "_draw": 22960, "ðŁĳ§": 151927, "Ġcyclist": 79389, "çİ¯æ°§": 117753, "ĠâĪĢ": 54334, "ĠdB": 43518, "ĠAcres": 81781, "_runs": 66861, "ĠNRA": 52065, "Ġbarra": 150468, "ĠXElement": 57768, "åĽłä¸ºä»ĸ": 107342, "ä¸įç®¡": 101244, "Ġreb": 12360, "Ġsupporting": 12607, "ĠparseFloat": 25683, "áĢ¢": 153690, "ĠÐ¿Ð¾Ð·Ð²Ð¾Ð»Ð¸ÑĤ": 135165, "asions": 86945, "Ġ`}Ċ": 90713, "Ġaun": 88428, "Ġreward": 11308, "ä¸Ńæĸĩç½ĳ": 108557, "ĠĠĠĠĠĠĠĠĠĠĠĠĠĠĠĠĠĠĠĠĠĠĠĠĠĠĠĠĠĠĠĠĠĠĠĠĠ": 8332, "è½¦åĨħ": 112053, "ĠsÃ¼re": 136192, "(sentence": 55680, ".getFullYear": 39734, "åıĹè¿ĩ": 115618, "91": 104327, "Ġundermines": 94338, "ĠSchritt": 140287, "ihar": 71096, "ĠÐ·Ð°Ð´ÐµÑĢÐ¶": 133427, "Ġfairly": 14129, "ðŁĲª": 151866, "Ġfuller": 86198, "ĠInternal": 15400, "æĪĳ": 98326, "ĠAda": 50813, "Ġremovable": 53433, "Ġåħ¬åı¸åĲįç§°": 103890, "åĨĻä¸ĭ": 115440, "ĠJSName": 95671, "ðŁİĹ": 151719, "Ġuniqueness": 58650, "ĠTv": 49236, "ĠÐ¶ÐµÐ»Ð°ÑĤÐµÐ»ÑĮÐ½Ð¾": 151218, "changes": 19329, "ĠhÃ¤tten": 145290, "ðŁĺ¨": 152376, "çĻ½èī²": 102893, "ĠIU": 79972, "Blocks": 29689, "+h": 61400, "ĠFEC": 91536, "Foo": 40695, "èģĬå¤©": 103864, "å¹¿ä¹ī": 115344, "éģµ": 101342, "âĽ": 151340, "ä¾µçĬ¯äºĨ": 123739, "ĠTicket": 28298, "Total": 7595, "mdir": 69176, "ĠexperiÃªncia": 141555, "earned": 57207, "æ´¾åĩºæīĢ": 106205, "ĠACTIONS": 62865, "Ġassistance": 12987, "ĠÑĤÑĢÐ°Ð½Ñģ": 133196, "äº¤éĢļå¤§åŃ¦": 111428, "å·¥ç¨ĭæĸ½å·¥": 110056, ",_": 20358, "Ġshading": 71188, "ĠFisher": 35328, "ĠDavis": 16764, "æºĲæºĲ": 120084, "=yes": 59151, "ÏĦÎ±Î½": 130025, "rne": 65440, "ãĥ»": 9271, "åŃµåĮĸ": 109926, "éªļ": 106319, ".Generic": 4341, "ĉcount": 18004, "Ġdni": 60333, "Ġpaycheck": 76367, "ibal": 50197, "Ġtimestamps": 48475, "=\"": 428, "Regex": 32317, "[\"$": 93863, "itorio": 95180, "Ġdam": 3739, "oblins": 78183, "ØªØŃ": 130717, "ãģĹãĤĩãģĨ": 129804, "ĠJScrollPane": 81235, "ĠTHANK": 80202, "\\Db": 71641, ".har": 85737, "alez": 42700, "Ġbisa": 39769, "å¯¹æĤ£èĢħ": 125169, "undai": 49363, "Ġsoldiers": 14845, "/ajax": 24152, "ĠIMO": 83378, "ĠÐºÐ¾Ð¼Ð¼ÐµÐ½ÑĤÐ°ÑĢÐ¸Ð¸": 147556, "pulse": 77579, "ÓĿ": 152881, "_HOME": 28366, "_OFFSET": 17601, "é¢ĦæľŁçļĦ": 116832, "åħĪæĺ¯": 113184, "çĽ²": 103024, "Ġ***/Ċ": 80890, "åŁºç¡": 99249, "OrUpdate": 55681, "åĵī": 109797, "ĠÑĥÐºÑĢÐ°ÑĹÐ½": 138249, "_dice": 96380, "à¸¥": 31649, "vn": 28041, "-quarter": 56927, "ç©ºèħ¹": 121166, "åĩºçīĪçļĦåĽ¾ä¹¦": 103012, "respect": 44376, "åĪĨæĶ¯": 108416, "Ġespresso": 64944, "hints": 94547, "ĠBuilder": 20583, "Ġequally": 18279, "åĺīåħ´": 112956, "Ġprevailed": 84018, "OutOfRangeException": 48923, "ĠJoomla": 71454, "UUID": 24678, "ĠÙĩÙħÚĨÙĨÛĮÙĨ": 139292, "Ġpicturesque": 73327, "_dept": 93080, ".touches": 83975, ".Repository": 25093, "ĠfÃ¡cil": 58731, ".currency": 45149, "ĠQWidget": 36095, "Ġneglig": 34882, "Ġcylinders": 73741, "ç§ĳå°Ķ": 124387, "Ġgrop": 90579, "å°ıå°ıçļĦ": 108871, "Ð¾ÑģÑĭ": 141622, "æī§çħ§": 111430, "ìĶ": 142995, "ĠtotalPrice": 71652, "Ġcoolant": 95959, "Ġcontestant": 86500, "ĠZi": 92501, "Experimental": 80668, "ĠGTA": 58340, "ĠdÃ¹": 136690, "+)/": 54511, "ĠÐļÐ¾ÑĢ": 132015, "ĠæīĵéĢł": 125497, "éģĹè¿¹": 116495, "æĪĺå½¹": 107363, "àº": 65370, "ĠDort": 58213, "çĮ®ç¤¼": 124400, "éħįä¸Ĭ": 116145, "laps": 88980, "Ġnorm": 7465, "riers": 17270, "{{{": 89940, "Ã¤ren": 95243, "å¤©çĦ¶": 101994, "Ġcourageous": 74063, "future": 21008, "áĤĪ": 153792, "ĠChronicle": 40829, "Ð²Ð°ÑĢÐ´": 147409, "=train": 75991, "Jimmy": 84949, ".drawImage": 47576, "ĠCoal": 24737, "Ġpdf": 12776, "tweets": 79080, "-HT": 98244, ".nextDouble": 66547, "**:": 94713, "tej": 138516, "Ġfetch": 7807, ".viewDidLoad": 30985, "æ¶Īéĺ²æķĳæı´": 122660, "æĶ¶çľĭ": 123599, "ĠÐ½ÐµÐ¾Ð´": 144026, "ĠTooltip": 58813, "vik": 42836, ".Compose": 85152, "åģļåĩºäºĨ": 108131, "therapy": 45385, "Ġexplosive": 32893, "<p": 7926, "ÑĢÐ°Ñī": 51426, "æĪ¿ä»·": 105023, "olders": 31976, "Police": 22147, "ØªÙħØ§Ø¹": 133075, "ĠIvan": 41186, "æķĳçģ¾": 112334, "Ġsolution": 6291, "åıĳåĮħ": 123353, "ĠMorr": 44596, "Ð¾Ð´Ð°ÑĢÑı": 129909, "etros": 34296, "regular": 22251, "éı": 127373, "ĠÑĤÑĢÐ°Ð½ÑģÐ¿": 129534, "Ġentweder": 150711, "},ĊĊ": 15754, "ĠBombay": 95802, "fÃ¼hl": 135784, "\\Foundation": 44954, "ocytes": 56396, "dense": 79639, "_ACCEPT": 51401, "Ġaccum": 15409, "åħ³ç³»": 99172, "åıĮèµ¢": 125859, "Ġinadvert": 58421, "%A": 52239, "ĠPlanet": 28732, "ä¸īè§Ĵ": 103317, "ĠGund": 68867, "æ³°åĽ½": 105906, ")tableView": 40317, "xbc": 43167, "_kernel": 26790, "çĽ´åįĩ": 112659, "Ġoptic": 79464, "_INPUT": 20975, "å±±æ²³": 118509, "ĠgehÃ¶r": 130981, "Ġtumblr": 45032, "ØĲ": 152431, "ĠÑĦÐ°Ðº": 128534, "æĹłæ¯Ĵ": 125563, "à¤®": 86522, "ĠpObj": 59536, "è¯¦": 100177, "Ġgrave": 24121, "_DP": 70931, "Ġcanada": 31630, "ĠDisplayName": 81116, "Ġvisuals": 52627, "åıĺéĩıçļĦ": 121403, "Ġcaric": 75367, "Ġremot": 35614, "Ġsodom": 81957, "slot": 21486, "å±ıå¹ķ": 103106, "å¤§åĵ¥": 108089, "Ġcocks": 67942, "Ġtesters": 88977, "\\Helpers": 93766, "Sid": 67161, "ĠDATE": 28443, "Ġä½Ĩ": 101600, "Ġdarken": 93891, "ĠÐ²Ð¾Ð¹": 129335, "ĠBCM": 47918, "Ð½ÑĥÐ¶Ð´": 143322, "è½¬å°ıçģ«": 119231, "_As": 62300, "iti": 12297, "+k": 45186, "ĠFieldType": 83918, "çĶŁåŃĲ": 116297, "<link": 13671, "owo": 57321, "Modification": 80141, "Ġmaiden": 72655, ",Y": 29324, "Ġdelegate": 13371, "æ´Ĺåıĳ": 126715, "Ïķ": 153335, "omes": 20306, "Ġnhiá»ħm": 147631, "çļĦåľŁåľ°": 113999, "ÐµÐ½ÑģÐ°": 138861, "unciation": 46030, "Ġfetus": 74989, "ä¹Łåı¯èĥ½æĺ¯": 125961, "agnostic": 11947, "ĠHitch": 69839, "ĠAdditionally": 22348, "Ù¢": 152465, "ÙĩØ¯Ø§Ùģ": 149487, "Generally": 75933, "+x": 37696, "ĠAux": 49737, "ahn": 29448, "ĠMuch": 23245, "æľīæĹ¶éĹ´": 119038, "Ð¾ÑģÐºÐ²Ð°": 139305, "ĠColombian": 82863, "ç¢§": 103163, "è¯¦ç»Ĩä»ĭç»į": 125559, "-initial": 47665, "Éĳ": 153817, "Ġdisposing": 23149, "lebnis": 143689, "ĠRewrite": 92431, "ĠÑĢÐµÑĪÐ¸Ð»Ð¸": 137692, "éĥĳå·ŀå¸Ĥ": 116217, "Ġinstitute": 43448, "mmas": 88795, "æľºåĻ¨äºº": 104070, "Ġkillings": 46743, "ĠACK": 53406, "ĠnewNode": 33398, "Ġabusive": 42314, "Ġuses": 5711, "Ġupright": 48281, "ĠBOTH": 84784, "å¼ķæµģ": 111696, "Ġcater": 27873, "Registration": 23301, "ĠSeriously": 56126, "<<\"\\": 28674, "ĠXM": 50685, "-rest": 75626, "ÑģÑĤÐ¸ÑĤÑĥÑĤ": 132871, "Ġpropias": 147105, "ĠCMP": 72044, "ĠNunes": 84413, "_trampoline": 92162, "Ġadem": 129820, "Ãºb": 26704, "Defines": 73242, "_ARROW": 70754, "ĠrÃ©sz": 139019, "çĥŁèĬ±": 111248, "_estimator": 91197, "Ġindis": 82189, "bindParam": 33654, ".cycle": 96613, "ĠVolk": 42270, "Ġregul": 14080, "alog": 30825, "---Ċ": 10947, "ĠDette": 145006, "ITH": 4150, ".handleClick": 72571, "_CARD": 45260, "ĠBonds": 83334, "ĉmask": 74323, "ĠcÃ´ng": 61594, "Ġinfec": 134496, "æĲŀ": 101024, ".abs": 14562, "iczne": 138648, "kowo": 144656, "Ġvoce": 148317, "Ġdigitales": 151035, "åĩŃä»Ģä¹Ī": 120082, "ç¨»çĶ°": 126035, "Ġdedication": 38647, "ÑģÑĥ": 129458, "Ð½Ð¾Ð¿": 75270, "Ġscoop": 56027, "ĠBulletin": 59546, "*(": 6599, "ĠPTSD": 60888, "itor": 1919, "ĠEvaluate": 53753, "ALK": 36265, "Ġâħ": 116835, "æĹ¥åīį": 104594, "ðŁĹĶ": 152292, "å¼ĢåıĳåĴĮ": 121388, "Close": 7925, "ousands": 38827, "Ġacos": 79565, ".cut": 88665, "ĠthÆ°á»Łng": 140956, "èĢĮçŁ¥": 112278, "ä¹Łæĺ¯å¦ĤæŃ¤": 115499, "_navigation": 57655, "éĹ®": 98513, ".Allow": 28974, "andÄ±": 150302, "(ns": 39203, "ativo": 28153, "ç¤": 17438, "æķ´é½Ĳ": 108392, ".createCell": 75811, "_run": 13998, "(TM": 91391, "(en": 45339, "Ø²": 39482, "Ġundercut": 94212, "roduction": 16724, "ĠðŁ": 11157, "ĠÐ³ÑĢÑĥÐ½": 136569, "áŁĴáŀ": 72017, ".mean": 18678, "Ġcorte": 139062, "Stick": 87377, "iless": 71588, "ĠØ¨Ø§ÙĦØ¥": 146734, "endung": 149191, "?>čĊ": 20787, "gene": 42129, "|unique": 92203, "(cards": 73289, "ä»¥ä¸ĭ": 99977, "ĉpc": 81342, "ä¸İä¼łç»Ł": 118702, "ĉLL": 93093, "ĠInfinity": 39673, "ĠDiscussion": 35337, "_d": 814, "Ð½Ð¾ÑĤÐ¾": 136346, "Ġvik": 135319, "mut": 6984, "PointXYZ": 84699, "Ġbanc": 67810, "atement": 5605, "Ã²ng": 63321, "Ġ\",\"": 15541, "/company": 79301, "missing": 30496, "Lord": 50747, "Ġcomprendre": 138853, "ĉSC": 84818, "Ġcontinual": 76264, "åľ§": 144068, "LOSE": 15949, "çļĦåĲİ": 107850, "ä½Ĩè¿Ļ": 107710, ".tip": 77417, "Ġdefinite": 43520, "ÇĹ": 153084, "idamente": 138054, "])čĊ": 15002, "Ġå¥³æĢ§": 126982, "prene": 16518, "à¾į": 154050, "Ġlearners": 51801, "Ġsonst": 94445, "è¿": 10076, "æ¯ģäºĨ": 126764, "axon": 51495, "ĠHttpServletRequest": 49276, ".Async": 43864, "ĠHomePage": 43882, "Ġusleep": 81921, "ä»£çłģ": 103461, "Ġtrá»ĵng": 150810, "Ġvor": 13897, "HIR": 39493, "ĠJess": 22977, "(Expected": 89682, "éļı": 98932, "assign": 6983, ".setDefault": 76220, "ĠMuseo": 144675, "EEP": 48557, "ĠScar": 29547, "#for": 79769, "ribbon": 54216, "ĠCPU": 13931, ".ask": 67213, "åĲİæīį": 122731, "ĠcJSON": 70052, "Ġè®¾": 125348, "worked": 69590, "âĺĤ": 154572, "ptem": 129225, "æĹ©æĻļ": 114036, "ĠKle": 26266, "'}}": 22831, "æī§è¡ĮçļĦ": 121921, "Ġtechnical": 10911, "Ġtot": 2401, "ĠØ£ÙĬ": 130200, "-related": 13895, "ĉdataType": 58844, "ĠçĶŁéķ¿": 125949, "Ġ65": 122621, "ailure": 9369, "Ġwaterfall": 68546, "ĠTypeName": 96901, "ðŁĸ§": 152247, "ĠPoor": 44414, "Ġrefuge": 14500, "Ġkraju": 150950, "ĠAircraft": 58438, "ĠRecommendations": 87688, "-reg": 32019, "Ġexpr": 15157, "Ġsuiv": 45561, "Ġluder": 94201, "ä½łçİ°åľ¨": 116828, "Right": 5979, "Ġllu": 149386, "ĠNorthwestern": 65780, "Ġzest": 79880, "åĪĨæ®µ": 121900, "endl": 5336, ".Scale": 51491, "_scalar": 41417, "Ġdemocracia": 150105, "ĠNational": 5055, "Ġcircumstance": 51795, "Ġglowing": 48188, "éĥ½æĺ¯ä¸Ģä¸ª": 122260, "åıĳèĩªç®Ģä¹¦app": 123629, ".PER": 47029, "iler": 5769, "ĠÐ°ÐºÐºÑĥ": 132758, "çĮķ": 122397, "(ap": 34250, "Ġexcelente": 94604, "Ġpri": 12487, "Ġimmigration": 15081, "setOnClickListener": 63175, "ĠÐ¶Ð¸ÑĢ": 138034, "Ġrarity": 58366, "-cache": 36489, "(Sender": 33253, "ÑĸÑģ": 131337, "Ġcomien": 141363, "åĲ¬éĹ»": 126055, "ä¸Ģæ£µ": 121024, "ĠprÃ©sident": 87968, "å¤§åħ¨": 111138, "âĭ²": 153612, "foreground": 34745, "Ġforfeiture": 88880, "ĠÐ¸ÑģÐ¿Ð¾Ð»Ð½ÐµÐ½Ð¸Ñı": 146007, "Ġvectors": 22818, "EFAULT": 83025, "ĠÑĢÐ°Ð·Ð¼ÐµÑĢ": 98207, "Ġindent": 17480, "åŃĲçļĦ": 100521, "èļĬ": 109412, "-selling": 47330, "ĠUsed": 12193, "_terminal": 63847, "Ġexacerb": 51435, "woch": 142984, "ãĢĤ)": 114716, "ĠTulsa": 73977, "áĤ": 151345, "ĠÐ¸Ð½ÑĦÐµÐº": 133645, "Ġtestimonials": 82820, "åĨľåİĨ": 110884, "Ġhauteur": 147611, "onis": 95883, "Ġarray": 1334, "ĠkÃ¶r": 134029, ">(\"": 13203, "(period": 74195, "Ġboiler": 27533, "ĠSar": 13628, "ruck": 129090, "ĠKim": 13500, "áģħ": 153725, "ĠÑĦÐµÐ²": 131329, "Mapping": 6807, "adero": 72663, "_zip": 41893, "èİ²åŃĲ": 121127, "vented": 72564, "åıĪå°Ĩ": 118556, "-equ": 61821, "alertView": 85890, "Ġfar": 3041, "abeth": 17383, "å°ıçģ«": 106653, "setBackground": 89776, "ĠCRE": 49290, "å°ĨæĿ¥": 104757, "ĠTan": 24474, "uffled": 42093, "Ġhappiness": 22948, "Ġrichiesta": 146282, "Supplier": 45888, "ĠLENG": 69117, "Ġproyec": 129262, "ĠMarkup": 97727, "Ġcal": 1620, "Ġpoda": 146372, "Ġcustomized": 31556, "_traffic": 89268, "menti": 132313, "Ġabsolute": 10735, "Ġaccru": 82048, "ĠLibertarian": 84027, "auen": 44990, "cas": 24237, "ÑĭÑĪÐµ": 148814, ");\"": 42544, "Ġwars": 24860, "rieb": 44653, "Ġtangible": 48984, "é¹": 99700, "Ġdoc": 4629, "USTOM": 19792, "Ġcontent": 2213, "swagen": 43328, "ĠSpend": 76424, "Ġgrd": 86834, "åıĹéĺ»": 123378, "Looking": 22405, "åŀĭä¼ģä¸ļ": 118182, "Ð¾Ð½ÑĤ": 95434, "Ġfunciones": 82722, "NdEx": 46212, "Ġcaract": 56224, "ä¼ģä¸ļåıĳå±ķ": 114840, "ĠPV": 37668, "();}Ċ": 60924, "toggleClass": 47977, "english": 29013, "elder": 66488, ".REQUEST": 74573, "ï¼¿": 112700, "_UNITS": 90035, "Ġprzes": 142405, "ĉprint": 6900, "Ġadvis": 9618, "ainting": 70327, "Ġaspects": 13557, "Ġ&": 609, "Ġaura": 38832, "ØªØ±Ø©": 142761, "Ġversions": 10790, "âĢ³": 21529, "ĠåĲĮæĹ¶": 105103, "ä¸ĩè¾¾": 111955, "ĠðŁĻĤĊĊ": 38814, "Ġrecommendation": 27589, "ä»Ļ": 100607, "(adj": 70978, "ĠÐ²Ð¾Ð´Ð¾Ð¹": 135215, "irected": 74027, "Ġenquanto": 93844, "_rb": 68045, "Ġpertinent": 61091, "Ġdwelling": 50256, "Ġlect": 16498, "Ġagreements": 19436, "ĠMemphis": 41825, "ony": 3549, "+)": 36014, ".opt": 28005, "å°±æĪĲä¸º": 126441, "Ġmainland": 49694, "Ġtxt": 7932, "ĠDeadly": 94040, "åħ±åĲĮä½ĵ": 110612, "åħĳæį¢": 113576, "AuthService": 89717, "rootScope": 23488, "ĠØ´Ø¨": 133733, "å°ıé¸Ł": 126501, "è·µè¡Į": 105884, "Ġwartime": 86132, "entities": 10494, "ĠSort": 15954, "-entry": 46953, "orderby": 45487, "_H": 2039, "-called": 18866, "ØªÙħØ¹": 141983, "Ġç¬¬ä¹Ŀç«ł": 114205, "Ġproposal": 13725, "æĦŁæŁĵçļĦ": 120378, "-door": 56706, "\"To": 64644, "_UN": 6735, "=[]Ċ": 27095, "áŁ½": 154289, "æĿĥéĩį": 110254, "lere": 130167, "ĠÑĥÐ¿ÑĢÐ°Ð²Ð»Ñı": 141954, "Ġskys": 83626, ",\"\\": 42276, "åĪĴç®Ĺ": 118510, "Ġnationalist": 51553, "âĭ©": 153604, "Ġnik": 74511, "ĉsystem": 40072, "ĠNeptune": 78984, "ContentView": 18047, "äººåĳĺåĴĮ": 121929, "marketing": 91047, "(qu": 64939, "ADC": 31817, "ĉvolatile": 30992, "Ġtener": 33270, "ç«ĭåľº": 106291, "èĲ½æĪ·": 110479, "afen": 67066, ".http": 6964, "è°ĥæİ§": 105194, "åħ¬æĸ¤": 105689, "ĠKu": 32233, "ĠÐ½Ð°ÑģÑĤÑĢÐ¾Ð¹": 143231, "è´¢ç»ı": 104366, "Ð¼Ð¾ÑĢ": 141840, "ĠRodrÃŃguez": 143054, "Conversation": 59893, "æĬĹçĻĮ": 118661, "ç²¾çģµ": 108796, "Ġunemployment": 25529, "æ¸ħæ¥ļäºĨ": 124535, "Ġtrial": 9088, ".hover": 77795, "æ¯ıéĢ¢": 124296,
[...]
